{
  "<pad>": 0,
  "<eos>": 1,
  "<bos>": 2,
  "<unk>": 3,
  "\u0000": 4,
  "\u0001": 5,
  "\u0002": 6,
  "\u0003": 7,
  "\u0004": 8,
  "\u0005": 9,
  "\u0006": 10,
  "\u0007": 11,
  "\b": 12,
  "\t": 13,
  "\n": 14,
  "\r": 15,
  "\u000e": 16,
  "\u000f": 17,
  "\u0010": 18,
  "\u0011": 19,
  "\u0012": 20,
  "\u0013": 21,
  "\u0014": 22,
  "\u0015": 23,
  "\u0016": 24,
  "\u0018": 25,
  "\u0019": 26,
  "\u001a": 27,
  "\u001b": 28,
  "\u001f": 29,
  "!": 30,
  "\"": 31,
  "#": 32,
  "$": 33,
  "%": 34,
  "&": 35,
  "'": 36,
  "(": 37,
  ")": 38,
  "*": 39,
  "+": 40,
  ",": 41,
  "-": 42,
  ".": 43,
  "/": 44,
  "0": 45,
  "1": 46,
  "2": 47,
  "3": 48,
  "4": 49,
  "5": 50,
  "6": 51,
  "7": 52,
  "8": 53,
  "9": 54,
  ":": 55,
  ";": 56,
  "<": 57,
  "=": 58,
  ">": 59,
  "?": 60,
  "@": 61,
  "A": 62,
  "B": 63,
  "C": 64,
  "D": 65,
  "E": 66,
  "F": 67,
  "G": 68,
  "H": 69,
  "I": 70,
  "J": 71,
  "K": 72,
  "L": 73,
  "M": 74,
  "N": 75,
  "O": 76,
  "P": 77,
  "Q": 78,
  "R": 79,
  "S": 80,
  "T": 81,
  "U": 82,
  "V": 83,
  "W": 84,
  "X": 85,
  "Y": 86,
  "Z": 87,
  "[": 88,
  "\\": 89,
  "]": 90,
  "^": 91,
  "_": 92,
  "a": 93,
  "b": 94,
  "c": 95,
  "d": 96,
  "e": 97,
  "f": 98,
  "g": 99,
  "h": 100,
  "i": 101,
  "j": 102,
  "k": 103,
  "l": 104,
  "m": 105,
  "n": 106,
  "o": 107,
  "p": 108,
  "q": 109,
  "r": 110,
  "s": 111,
  "t": 112,
  "u": 113,
  "v": 114,
  "w": 115,
  "x": 116,
  "y": 117,
  "z": 118,
  "{": 119,
  "|": 120,
  "}": 121,
  "~": 122,
  "": 123,
  "": 124,
  "": 125,
  "": 126,
  "": 127,
  "": 128,
  "": 129,
  "": 130,
  "": 131,
  "": 132,
  "": 133,
  "": 134,
  "": 135,
  "": 136,
  "": 137,
  "": 138,
  "": 139,
  "": 140,
  "": 141,
  "": 142,
  "": 143,
  "": 144,
  "": 145,
  "": 146,
  " ": 147,
  "¡": 148,
  "¢": 149,
  "£": 150,
  "¤": 151,
  "¥": 152,
  "¦": 153,
  "§": 154,
  "¨": 155,
  "©": 156,
  "ª": 157,
  "«": 158,
  "¬": 159,
  "­": 160,
  "®": 161,
  "¯": 162,
  "°": 163,
  "±": 164,
  "²": 165,
  "³": 166,
  "µ": 167,
  "¶": 168,
  "·": 169,
  "¸": 170,
  "¹": 171,
  "º": 172,
  "»": 173,
  "¼": 174,
  "½": 175,
  "¾": 176,
  "¿": 177,
  "À": 178,
  "Á": 179,
  "Â": 180,
  "Ã": 181,
  "Ä": 182,
  "Å": 183,
  "Æ": 184,
  "Ç": 185,
  "È": 186,
  "É": 187,
  "Ê": 188,
  "Ë": 189,
  "Ì": 190,
  "Í": 191,
  "Î": 192,
  "Ï": 193,
  "Ð": 194,
  "Ñ": 195,
  "Ò": 196,
  "Ó": 197,
  "Ô": 198,
  "Õ": 199,
  "Ö": 200,
  "×": 201,
  "Ø": 202,
  "Ù": 203,
  "Ú": 204,
  "Û": 205,
  "Ü": 206,
  "Ý": 207,
  "Þ": 208,
  "ß": 209,
  "à": 210,
  "á": 211,
  "â": 212,
  "ã": 213,
  "ä": 214,
  "å": 215,
  "æ": 216,
  "ç": 217,
  "è": 218,
  "é": 219,
  "ê": 220,
  "ë": 221,
  "ì": 222,
  "í": 223,
  "î": 224,
  "ï": 225,
  "ð": 226,
  "ñ": 227,
  "ò": 228,
  "ó": 229,
  "ô": 230,
  "õ": 231,
  "ö": 232,
  "÷": 233,
  "ø": 234,
  "ù": 235,
  "ú": 236,
  "û": 237,
  "ü": 238,
  "ý": 239,
  "þ": 240,
  "ÿ": 241,
  "Ā": 242,
  "ā": 243,
  "Ă": 244,
  "ă": 245,
  "Ą": 246,
  "ą": 247,
  "Ć": 248,
  "ć": 249,
  "Ĉ": 250,
  "ĉ": 251,
  "Ċ": 252,
  "ċ": 253,
  "Č": 254,
  "č": 255,
  "Ď": 256,
  "ď": 257,
  "Đ": 258,
  "đ": 259,
  "Ē": 260,
  "ē": 261,
  "Ĕ": 262,
  "ĕ": 263,
  "Ė": 264,
  "ė": 265,
  "Ę": 266,
  "ę": 267,
  "Ě": 268,
  "ě": 269,
  "Ĝ": 270,
  "ĝ": 271,
  "Ğ": 272,
  "ğ": 273,
  "Ġ": 274,
  "ġ": 275,
  "Ģ": 276,
  "ģ": 277,
  "Ĥ": 278,
  "ĥ": 279,
  "Ħ": 280,
  "ħ": 281,
  "Ĩ": 282,
  "ĩ": 283,
  "Ī": 284,
  "ī": 285,
  "Ĭ": 286,
  "ĭ": 287,
  "Į": 288,
  "į": 289,
  "İ": 290,
  "ı": 291,
  "ĳ": 292,
  "Ĵ": 293,
  "ĵ": 294,
  "Ķ": 295,
  "ķ": 296,
  "ĸ": 297,
  "Ĺ": 298,
  "ĺ": 299,
  "Ļ": 300,
  "ļ": 301,
  "Ľ": 302,
  "ľ": 303,
  "ŀ": 304,
  "Ł": 305,
  "ł": 306,
  "Ń": 307,
  "ń": 308,
  "Ņ": 309,
  "ņ": 310,
  "Ň": 311,
  "ň": 312,
  "ŉ": 313,
  "Ŋ": 314,
  "ŋ": 315,
  "Ō": 316,
  "ō": 317,
  "ŏ": 318,
  "Ő": 319,
  "ő": 320,
  "Œ": 321,
  "œ": 322,
  "Ŕ": 323,
  "ŕ": 324,
  "Ŗ": 325,
  "ŗ": 326,
  "Ř": 327,
  "ř": 328,
  "Ś": 329,
  "ś": 330,
  "Ŝ": 331,
  "ŝ": 332,
  "Ş": 333,
  "ş": 334,
  "Š": 335,
  "š": 336,
  "Ţ": 337,
  "ţ": 338,
  "Ť": 339,
  "ť": 340,
  "Ŧ": 341,
  "ŧ": 342,
  "Ũ": 343,
  "ũ": 344,
  "Ū": 345,
  "ū": 346,
  "Ŭ": 347,
  "ŭ": 348,
  "Ů": 349,
  "ů": 350,
  "Ű": 351,
  "ű": 352,
  "Ų": 353,
  "ų": 354,
  "Ŵ": 355,
  "ŵ": 356,
  "Ŷ": 357,
  "ŷ": 358,
  "Ÿ": 359,
  "Ź": 360,
  "ź": 361,
  "Ż": 362,
  "ż": 363,
  "Ž": 364,
  "ž": 365,
  "ſ": 366,
  "ƀ": 367,
  "Ɓ": 368,
  "Ƃ": 369,
  "ƃ": 370,
  "Ƅ": 371,
  "Ɔ": 372,
  "ƈ": 373,
  "ƍ": 374,
  "Ǝ": 375,
  "Ə": 376,
  "Ɛ": 377,
  "ƒ": 378,
  "Ɣ": 379,
  "ƕ": 380,
  "Ɩ": 381,
  "ƙ": 382,
  "ƚ": 383,
  "ƛ": 384,
  "Ɯ": 385,
  "ƞ": 386,
  "Ɵ": 387,
  "Ơ": 388,
  "ơ": 389,
  "Ƣ": 390,
  "ƣ": 391,
  "Ƥ": 392,
  "ƥ": 393,
  "Ʀ": 394,
  "Ƨ": 395,
  "ƨ": 396,
  "Ʃ": 397,
  "ƪ": 398,
  "ƫ": 399,
  "Ƭ": 400,
  "ƭ": 401,
  "Ʈ": 402,
  "Ư": 403,
  "ư": 404,
  "Ʊ": 405,
  "ƴ": 406,
  "Ƶ": 407,
  "ƶ": 408,
  "Ʒ": 409,
  "Ƹ": 410,
  "ƹ": 411,
  "ƺ": 412,
  "ƻ": 413,
  "Ƽ": 414,
  "ƽ": 415,
  "ƾ": 416,
  "ƿ": 417,
  "ǀ": 418,
  "ǁ": 419,
  "ǂ": 420,
  "ǃ": 421,
  "Ǆ": 422,
  "ǅ": 423,
  "ǆ": 424,
  "Ǉ": 425,
  "ǈ": 426,
  "ǉ": 427,
  "Ǌ": 428,
  "ǋ": 429,
  "ǌ": 430,
  "Ǎ": 431,
  "ǎ": 432,
  "Ǐ": 433,
  "ǐ": 434,
  "Ǒ": 435,
  "ǒ": 436,
  "Ǔ": 437,
  "ǔ": 438,
  "Ǖ": 439,
  "ǖ": 440,
  "Ǘ": 441,
  "ǘ": 442,
  "Ǚ": 443,
  "ǚ": 444,
  "Ǜ": 445,
  "ǜ": 446,
  "ǝ": 447,
  "Ǟ": 448,
  "ǟ": 449,
  "Ǡ": 450,
  "Ǣ": 451,
  "ǣ": 452,
  "Ǥ": 453,
  "ǥ": 454,
  "Ǧ": 455,
  "ǧ": 456,
  "Ǩ": 457,
  "ǩ": 458,
  "Ǫ": 459,
  "ǫ": 460,
  "Ǭ": 461,
  "ǭ": 462,
  "Ǯ": 463,
  "ǯ": 464,
  "ǰ": 465,
  "Ǳ": 466,
  "ǲ": 467,
  "ǳ": 468,
  "Ǵ": 469,
  "ǵ": 470,
  "Ƿ": 471,
  "ǹ": 472,
  "Ǻ": 473,
  "ǻ": 474,
  "Ǽ": 475,
  "ǽ": 476,
  "Ǿ": 477,
  "ǿ": 478,
  "ȁ": 479,
  "ȃ": 480,
  "ȅ": 481,
  "ȇ": 482,
  "Ȉ": 483,
  "ȋ": 484,
  "ȍ": 485,
  "Ȏ": 486,
  "ȏ": 487,
  "ȑ": 488,
  "ȕ": 489,
  "Ȗ": 490,
  "ȗ": 491,
  "Ș": 492,
  "ș": 493,
  "Ț": 494,
  "ț": 495,
  "Ȝ": 496,
  "ȝ": 497,
  "Ȟ": 498,
  "ȟ": 499,
  "ȣ": 500,
  "Ȧ": 501,
  "ȧ": 502,
  "ȩ": 503,
  "Ȫ": 504,
  "ȫ": 505,
  "Ȭ": 506,
  "ȭ": 507,
  "Ȯ": 508,
  "ȯ": 509,
  "Ȱ": 510,
  "ȱ": 511,
  "Ȳ": 512,
  "ȳ": 513,
  "ȵ": 514,
  "ȶ": 515,
  "Ⱥ": 516,
  "Ȼ": 517,
  "ȼ": 518,
  "Ƚ": 519,
  "Ⱦ": 520,
  "ȿ": 521,
  "Ɂ": 522,
  "ɂ": 523,
  "Ʉ": 524,
  "Ʌ": 525,
  "Ɇ": 526,
  "ɇ": 527,
  "Ɉ": 528,
  "ɉ": 529,
  "Ɋ": 530,
  "ɋ": 531,
  "Ɍ": 532,
  "ɍ": 533,
  "Ɏ": 534,
  "ɏ": 535,
  "ɐ": 536,
  "ɑ": 537,
  "ɒ": 538,
  "ɓ": 539,
  "ɔ": 540,
  "ɕ": 541,
  "ɖ": 542,
  "ɗ": 543,
  "ɘ": 544,
  "ə": 545,
  "ɚ": 546,
  "ɛ": 547,
  "ɜ": 548,
  "ɝ": 549,
  "ɞ": 550,
  "ɟ": 551,
  "ɠ": 552,
  "ɡ": 553,
  "ɢ": 554,
  "ɣ": 555,
  "ɤ": 556,
  "ɥ": 557,
  "ɦ": 558,
  "ɧ": 559,
  "ɨ": 560,
  "ɩ": 561,
  "ɪ": 562,
  "ɫ": 563,
  "ɬ": 564,
  "ɭ": 565,
  "ɮ": 566,
  "ɯ": 567,
  "ɰ": 568,
  "ɱ": 569,
  "ɲ": 570,
  "ɳ": 571,
  "ɴ": 572,
  "ɵ": 573,
  "ɶ": 574,
  "ɸ": 575,
  "ɹ": 576,
  "ɺ": 577,
  "ɻ": 578,
  "ɼ": 579,
  "ɽ": 580,
  "ɾ": 581,
  "ɿ": 582,
  "ʀ": 583,
  "ʁ": 584,
  "ʂ": 585,
  "ʃ": 586,
  "ʄ": 587,
  "ʅ": 588,
  "ʆ": 589,
  "ʇ": 590,
  "ʈ": 591,
  "ʉ": 592,
  "ʊ": 593,
  "ʋ": 594,
  "ʌ": 595,
  "ʍ": 596,
  "ʎ": 597,
  "ʏ": 598,
  "ʐ": 599,
  "ʑ": 600,
  "ʒ": 601,
  "ʔ": 602,
  "ʕ": 603,
  "ʖ": 604,
  "ʘ": 605,
  "ʙ": 606,
  "ʛ": 607,
  "ʜ": 608,
  "ʝ": 609,
  "ʞ": 610,
  "ʟ": 611,
  "ʣ": 612,
  "ʤ": 613,
  "ʥ": 614,
  "ʦ": 615,
  "ʧ": 616,
  "ʨ": 617,
  "ʰ": 618,
  "ʱ": 619,
  "ʲ": 620,
  "ʳ": 621,
  "ʴ": 622,
  "ʵ": 623,
  "ʶ": 624,
  "ʷ": 625,
  "ʸ": 626,
  "ʹ": 627,
  "ʺ": 628,
  "ʽ": 629,
  "ʾ": 630,
  "ʿ": 631,
  "ˀ": 632,
  "ˁ": 633,
  "˂": 634,
  "˃": 635,
  "˄": 636,
  "˅": 637,
  "ˆ": 638,
  "ˇ": 639,
  "ˉ": 640,
  "ˋ": 641,
  "ˌ": 642,
  "ˎ": 643,
  "ˏ": 644,
  "ː": 645,
  "ˑ": 646,
  "˓": 647,
  "˔": 648,
  "˕": 649,
  "˖": 650,
  "˗": 651,
  "˘": 652,
  "˙": 653,
  "˚": 654,
  "˛": 655,
  "˜": 656,
  "˝": 657,
  "˞": 658,
  "˟": 659,
  "ˠ": 660,
  "ˡ": 661,
  "ˢ": 662,
  "ˣ": 663,
  "ˤ": 664,
  "˥": 665,
  "˦": 666,
  "˧": 667,
  "˨": 668,
  "˩": 669,
  "˪": 670,
  "˭": 671,
  "ˮ": 672,
  "˰": 673,
  "˲": 674,
  "˳": 675,
  "˸": 676,
  "˹": 677,
  "˾": 678,
  "̀": 679,
  "́": 680,
  "̂": 681,
  "̃": 682,
  "̄": 683,
  "̅": 684,
  "̆": 685,
  "̇": 686,
  "̈": 687,
  "̉": 688,
  "̊": 689,
  "̋": 690,
  "̌": 691,
  "̍": 692,
  "̎": 693,
  "̏": 694,
  "̐": 695,
  "̑": 696,
  "̒": 697,
  "̓": 698,
  "̔": 699,
  "̕": 700,
  "̖": 701,
  "̗": 702,
  "̘": 703,
  "̙": 704,
  "̚": 705,
  "̛": 706,
  "̜": 707,
  "̝": 708,
  "̞": 709,
  "̟": 710,
  "̠": 711,
  "̡": 712,
  "̢": 713,
  "̣": 714,
  "̤": 715,
  "̥": 716,
  "̦": 717,
  "̧": 718,
  "̨": 719,
  "̩": 720,
  "̪": 721,
  "̫": 722,
  "̬": 723,
  "̭": 724,
  "̮": 725,
  "̯": 726,
  "̰": 727,
  "̱": 728,
  "̲": 729,
  "̳": 730,
  "̴": 731,
  "̵": 732,
  "̶": 733,
  "̷": 734,
  "̸": 735,
  "̹": 736,
  "̺": 737,
  "̻": 738,
  "̼": 739,
  "̽": 740,
  "̾": 741,
  "̿": 742,
  "͂": 743,
  "ͅ": 744,
  "͆": 745,
  "͇": 746,
  "͈": 747,
  "͉": 748,
  "͊": 749,
  "͋": 750,
  "͌": 751,
  "͍": 752,
  "͎": 753,
  "͏": 754,
  "͐": 755,
  "͑": 756,
  "͒": 757,
  "͓": 758,
  "͔": 759,
  "͕": 760,
  "͖": 761,
  "͗": 762,
  "͘": 763,
  "͙": 764,
  "͚": 765,
  "͜": 766,
  "͝": 767,
  "͞": 768,
  "͟": 769,
  "͠": 770,
  "͡": 771,
  "ͣ": 772,
  "ͤ": 773,
  "ͥ": 774,
  "ͦ": 775,
  "ͪ": 776,
  "ͬ": 777,
  "ͭ": 778,
  "Ͳ": 779,
  "ͳ": 780,
  "͵": 781,
  "ͺ": 782,
  "ͽ": 783,
  "΄": 784,
  "Ά": 785,
  "Έ": 786,
  "Ή": 787,
  "Ί": 788,
  "΋": 789,
  "Ό": 790,
  "Ύ": 791,
  "Ώ": 792,
  "ΐ": 793,
  "Α": 794,
  "Β": 795,
  "Γ": 796,
  "Δ": 797,
  "Ε": 798,
  "Ζ": 799,
  "Η": 800,
  "Θ": 801,
  "Ι": 802,
  "Κ": 803,
  "Λ": 804,
  "Μ": 805,
  "Ν": 806,
  "Ξ": 807,
  "Ο": 808,
  "Π": 809,
  "Ρ": 810,
  "Σ": 811,
  "Τ": 812,
  "Υ": 813,
  "Φ": 814,
  "Χ": 815,
  "Ψ": 816,
  "Ω": 817,
  "Ϊ": 818,
  "Ϋ": 819,
  "ά": 820,
  "έ": 821,
  "ή": 822,
  "ί": 823,
  "ΰ": 824,
  "α": 825,
  "β": 826,
  "γ": 827,
  "δ": 828,
  "ε": 829,
  "ζ": 830,
  "η": 831,
  "θ": 832,
  "ι": 833,
  "κ": 834,
  "λ": 835,
  "μ": 836,
  "ν": 837,
  "ξ": 838,
  "ο": 839,
  "π": 840,
  "ρ": 841,
  "ς": 842,
  "σ": 843,
  "τ": 844,
  "υ": 845,
  "φ": 846,
  "χ": 847,
  "ψ": 848,
  "ω": 849,
  "ϊ": 850,
  "ϋ": 851,
  "ό": 852,
  "ύ": 853,
  "ώ": 854,
  "ϑ": 855,
  "ϒ": 856,
  "ϕ": 857,
  "ϖ": 858,
  "Ϙ": 859,
  "ϙ": 860,
  "Ϛ": 861,
  "ϛ": 862,
  "Ϝ": 863,
  "ϝ": 864,
  "ϟ": 865,
  "Ϡ": 866,
  "ϧ": 867,
  "Ϩ": 868,
  "Ϭ": 869,
  "ϭ": 870,
  "ϰ": 871,
  "ϱ": 872,
  "ϲ": 873,
  "ϳ": 874,
  "ϴ": 875,
  "ϵ": 876,
  "϶": 877,
  "Ϲ": 878,
  "Ͻ": 879,
  "Ͼ": 880,
  "Ͽ": 881,
  "Ѐ": 882,
  "Ё": 883,
  "Ђ": 884,
  "Ѓ": 885,
  "Є": 886,
  "Ѕ": 887,
  "І": 888,
  "Ї": 889,
  "Ј": 890,
  "Љ": 891,
  "Њ": 892,
  "Ћ": 893,
  "Ќ": 894,
  "Ѝ": 895,
  "Ў": 896,
  "Џ": 897,
  "А": 898,
  "Б": 899,
  "В": 900,
  "Г": 901,
  "Д": 902,
  "Е": 903,
  "Ж": 904,
  "З": 905,
  "И": 906,
  "Й": 907,
  "К": 908,
  "Л": 909,
  "М": 910,
  "Н": 911,
  "О": 912,
  "П": 913,
  "Р": 914,
  "С": 915,
  "Т": 916,
  "У": 917,
  "Ф": 918,
  "Х": 919,
  "Ц": 920,
  "Ч": 921,
  "Ш": 922,
  "Щ": 923,
  "Ъ": 924,
  "Ы": 925,
  "Ь": 926,
  "Э": 927,
  "Ю": 928,
  "Я": 929,
  "а": 930,
  "б": 931,
  "в": 932,
  "г": 933,
  "д": 934,
  "е": 935,
  "ж": 936,
  "з": 937,
  "и": 938,
  "й": 939,
  "к": 940,
  "л": 941,
  "м": 942,
  "н": 943,
  "о": 944,
  "п": 945,
  "р": 946,
  "с": 947,
  "т": 948,
  "у": 949,
  "ф": 950,
  "х": 951,
  "ц": 952,
  "ч": 953,
  "ш": 954,
  "щ": 955,
  "ъ": 956,
  "ы": 957,
  "ь": 958,
  "э": 959,
  "ю": 960,
  "я": 961,
  "ѐ": 962,
  "ё": 963,
  "ђ": 964,
  "ѓ": 965,
  "є": 966,
  "ѕ": 967,
  "і": 968,
  "ї": 969,
  "ј": 970,
  "љ": 971,
  "њ": 972,
  "ћ": 973,
  "ќ": 974,
  "ѝ": 975,
  "ў": 976,
  "џ": 977,
  "Ѡ": 978,
  "ѡ": 979,
  "Ѣ": 980,
  "ѣ": 981,
  "Ѥ": 982,
  "ѥ": 983,
  "Ѧ": 984,
  "ѧ": 985,
  "Ѩ": 986,
  "ѩ": 987,
  "Ѫ": 988,
  "ѫ": 989,
  "Ѭ": 990,
  "ѭ": 991,
  "Ѯ": 992,
  "ѯ": 993,
  "Ѱ": 994,
  "ѱ": 995,
  "Ѳ": 996,
  "ѳ": 997,
  "Ѵ": 998,
  "ѵ": 999,
  "Ѷ": 1000,
  "ѷ": 1001,
  "Ѹ": 1002,
  "ѹ": 1003,
  "Ѻ": 1004,
  "ѻ": 1005,
  "Ѽ": 1006,
  "ѽ": 1007,
  "Ѿ": 1008,
  "ѿ": 1009,
  "҂": 1010,
  "҃": 1011,
  "҅": 1012,
  "҆": 1013,
  "҈": 1014,
  "҉": 1015,
  "Ҋ": 1016,
  "ҋ": 1017,
  "Ҍ": 1018,
  "ҍ": 1019,
  "Ҏ": 1020,
  "ҏ": 1021,
  "Ґ": 1022,
  "ґ": 1023,
  "Ғ": 1024,
  "ғ": 1025,
  "Ҕ": 1026,
  "ҕ": 1027,
  "Җ": 1028,
  "җ": 1029,
  "Ҙ": 1030,
  "ҙ": 1031,
  "Қ": 1032,
  "қ": 1033,
  "Ҝ": 1034,
  "ҝ": 1035,
  "Ҟ": 1036,
  "Ҡ": 1037,
  "ҡ": 1038,
  "Ң": 1039,
  "ң": 1040,
  "Ҥ": 1041,
  "ҥ": 1042,
  "Ҧ": 1043,
  "ҧ": 1044,
  "Ҩ": 1045,
  "Ҫ": 1046,
  "ҫ": 1047,
  "Ҭ": 1048,
  "ҭ": 1049,
  "Ү": 1050,
  "ү": 1051,
  "Ұ": 1052,
  "ұ": 1053,
  "Ҳ": 1054,
  "ҳ": 1055,
  "Ҵ": 1056,
  "Ҷ": 1057,
  "ҷ": 1058,
  "Ҹ": 1059,
  "ҹ": 1060,
  "Һ": 1061,
  "һ": 1062,
  "Ҽ": 1063,
  "ҽ": 1064,
  "Ҿ": 1065,
  "Ӏ": 1066,
  "Ӂ": 1067,
  "ӂ": 1068,
  "Ӄ": 1069,
  "ӄ": 1070,
  "Ӆ": 1071,
  "ӆ": 1072,
  "Ӈ": 1073,
  "ӈ": 1074,
  "Ӊ": 1075,
  "Ӌ": 1076,
  "Ӎ": 1077,
  "ӏ": 1078,
  "Ӑ": 1079,
  "ӑ": 1080,
  "Ӓ": 1081,
  "ӓ": 1082,
  "Ӕ": 1083,
  "ӕ": 1084,
  "Ӗ": 1085,
  "ӗ": 1086,
  "Ә": 1087,
  "ә": 1088,
  "Ӛ": 1089,
  "Ӝ": 1090,
  "Ӟ": 1091,
  "ӟ": 1092,
  "Ӡ": 1093,
  "ӡ": 1094,
  "Ӣ": 1095,
  "ӣ": 1096,
  "Ӥ": 1097,
  "ӥ": 1098,
  "Ӧ": 1099,
  "ӧ": 1100,
  "Ө": 1101,
  "ө": 1102,
  "Ӫ": 1103,
  "ӫ": 1104,
  "Ӭ": 1105,
  "Ӯ": 1106,
  "ӯ": 1107,
  "Ӱ": 1108,
  "ӱ": 1109,
  "Ӳ": 1110,
  "ӳ": 1111,
  "Ӵ": 1112,
  "Ӷ": 1113,
  "Ӹ": 1114,
  "ӹ": 1115,
  "Ӿ": 1116,
  "Ԁ": 1117,
  "ԁ": 1118,
  "Ԑ": 1119,
  "ԑ": 1120,
  "Ԓ": 1121,
  "ԓ": 1122,
  "ԛ": 1123,
  "Ԝ": 1124,
  "ԝ": 1125,
  "Ԧ": 1126,
  "ԩ": 1127,
  "ԭ": 1128,
  "Ա": 1129,
  "Բ": 1130,
  "Գ": 1131,
  "Դ": 1132,
  "Ե": 1133,
  "Զ": 1134,
  "Է": 1135,
  "Ը": 1136,
  "Թ": 1137,
  "Ժ": 1138,
  "Ի": 1139,
  "Լ": 1140,
  "Խ": 1141,
  "Ծ": 1142,
  "Կ": 1143,
  "Հ": 1144,
  "Ձ": 1145,
  "Ղ": 1146,
  "Ճ": 1147,
  "Մ": 1148,
  "Յ": 1149,
  "Ն": 1150,
  "Շ": 1151,
  "Ո": 1152,
  "Չ": 1153,
  "Պ": 1154,
  "Ջ": 1155,
  "Ռ": 1156,
  "Ս": 1157,
  "Վ": 1158,
  "Տ": 1159,
  "Ր": 1160,
  "Ց": 1161,
  "Ւ": 1162,
  "Փ": 1163,
  "Ք": 1164,
  "Օ": 1165,
  "Ֆ": 1166,
  "ՙ": 1167,
  "՚": 1168,
  "՛": 1169,
  "՜": 1170,
  "՝": 1171,
  "՞": 1172,
  "ա": 1173,
  "բ": 1174,
  "գ": 1175,
  "դ": 1176,
  "ե": 1177,
  "զ": 1178,
  "է": 1179,
  "ը": 1180,
  "թ": 1181,
  "ժ": 1182,
  "ի": 1183,
  "լ": 1184,
  "խ": 1185,
  "ծ": 1186,
  "կ": 1187,
  "հ": 1188,
  "ձ": 1189,
  "ղ": 1190,
  "ճ": 1191,
  "մ": 1192,
  "յ": 1193,
  "ն": 1194,
  "շ": 1195,
  "ո": 1196,
  "չ": 1197,
  "պ": 1198,
  "ջ": 1199,
  "ռ": 1200,
  "ս": 1201,
  "վ": 1202,
  "տ": 1203,
  "ր": 1204,
  "ց": 1205,
  "ւ": 1206,
  "փ": 1207,
  "ք": 1208,
  "օ": 1209,
  "ֆ": 1210,
  "և": 1211,
  "։": 1212,
  "֍": 1213,
  "֎": 1214,
  "֑": 1215,
  "֔": 1216,
  "֕": 1217,
  "֖": 1218,
  "֙": 1219,
  "֣": 1220,
  "֤": 1221,
  "֦": 1222,
  "֪": 1223,
  "֫": 1224,
  "֯": 1225,
  "ְ": 1226,
  "ֱ": 1227,
  "ֲ": 1228,
  "ֳ": 1229,
  "ִ": 1230,
  "ֵ": 1231,
  "ֶ": 1232,
  "ַ": 1233,
  "ָ": 1234,
  "ֹ": 1235,
  "ֺ": 1236,
  "ֻ": 1237,
  "ּ": 1238,
  "ֽ": 1239,
  "־": 1240,
  "ֿ": 1241,
  "׀": 1242,
  "ׁ": 1243,
  "ׂ": 1244,
  "׃": 1245,
  "ׄ": 1246,
  "ׇ": 1247,
  "׋": 1248,
  "א": 1249,
  "ב": 1250,
  "ג": 1251,
  "ד": 1252,
  "ה": 1253,
  "ו": 1254,
  "ז": 1255,
  "ח": 1256,
  "ט": 1257,
  "י": 1258,
  "ך": 1259,
  "כ": 1260,
  "ל": 1261,
  "ם": 1262,
  "מ": 1263,
  "ן": 1264,
  "נ": 1265,
  "ס": 1266,
  "ע": 1267,
  "ף": 1268,
  "פ": 1269,
  "ץ": 1270,
  "צ": 1271,
  "ק": 1272,
  "ר": 1273,
  "ש": 1274,
  "ת": 1275,
  "װ": 1276,
  "ױ": 1277,
  "ײ": 1278,
  "׳": 1279,
  "״": 1280,
  "׿": 1281,
  "؀": 1282,
  "؁": 1283,
  "؆": 1284,
  "؇": 1285,
  "،": 1286,
  "ؘ": 1287,
  "؛": 1288,
  "؟": 1289,
  "ؠ": 1290,
  "ء": 1291,
  "آ": 1292,
  "أ": 1293,
  "ؤ": 1294,
  "إ": 1295,
  "ئ": 1296,
  "ا": 1297,
  "ب": 1298,
  "ة": 1299,
  "ت": 1300,
  "ث": 1301,
  "ج": 1302,
  "ح": 1303,
  "خ": 1304,
  "د": 1305,
  "ذ": 1306,
  "ر": 1307,
  "ز": 1308,
  "س": 1309,
  "ش": 1310,
  "ص": 1311,
  "ض": 1312,
  "ط": 1313,
  "ظ": 1314,
  "ع": 1315,
  "غ": 1316,
  "ؽ": 1317,
  "ؾ": 1318,
  "ؿ": 1319,
  "ـ": 1320,
  "ف": 1321,
  "ق": 1322,
  "ك": 1323,
  "ل": 1324,
  "م": 1325,
  "ن": 1326,
  "ه": 1327,
  "و": 1328,
  "ى": 1329,
  "ي": 1330,
  "ً": 1331,
  "ٌ": 1332,
  "ٍ": 1333,
  "َ": 1334,
  "ُ": 1335,
  "ِ": 1336,
  "ّ": 1337,
  "ْ": 1338,
  "ٓ": 1339,
  "ٔ": 1340,
  "ٖ": 1341,
  "ٗ": 1342,
  "ٛ": 1343,
  "ٞ": 1344,
  "٠": 1345,
  "١": 1346,
  "٢": 1347,
  "٣": 1348,
  "٤": 1349,
  "٥": 1350,
  "٦": 1351,
  "٧": 1352,
  "٨": 1353,
  "٩": 1354,
  "٪": 1355,
  "٫": 1356,
  "٬": 1357,
  "٭": 1358,
  "ٰ": 1359,
  "ٱ": 1360,
  "ٴ": 1361,
  "ٹ": 1362,
  "ټ": 1363,
  "ٽ": 1364,
  "پ": 1365,
  "ڀ": 1366,
  "ځ": 1367,
  "ڄ": 1368,
  "څ": 1369,
  "چ": 1370,
  "ڈ": 1371,
  "ډ": 1372,
  "ڌ": 1373,
  "ڏ": 1374,
  "ڑ": 1375,
  "ړ": 1376,
  "ڕ": 1377,
  "ږ": 1378,
  "ژ": 1379,
  "ڙ": 1380,
  "ښ": 1381,
  "ڠ": 1382,
  "ڤ": 1383,
  "ک": 1384,
  "ڪ": 1385,
  "ګ": 1386,
  "ڬ": 1387,
  "گ": 1388,
  "ڰ": 1389,
  "ڳ": 1390,
  "ڵ": 1391,
  "ں": 1392,
  "ڻ": 1393,
  "ڼ": 1394,
  "ھ": 1395,
  "ڿ": 1396,
  "ۀ": 1397,
  "ہ": 1398,
  "ۂ": 1399,
  "ۆ": 1400,
  "ۇ": 1401,
  "ۋ": 1402,
  "ی": 1403,
  "ۍ": 1404,
  "ێ": 1405,
  "ۏ": 1406,
  "ې": 1407,
  "ے": 1408,
  "ە": 1409,
  "ۖ": 1410,
  "ۗ": 1411,
  "ۙ": 1412,
  "ۚ": 1413,
  "۝": 1414,
  "۞": 1415,
  "۟": 1416,
  "ۡ": 1417,
  "ۢ": 1418,
  "ۣ": 1419,
  "ۥ": 1420,
  "ۦ": 1421,
  "۩": 1422,
  "۫": 1423,
  "۬": 1424,
  "۰": 1425,
  "۱": 1426,
  "۲": 1427,
  "۳": 1428,
  "۴": 1429,
  "۵": 1430,
  "۶": 1431,
  "۷": 1432,
  "۸": 1433,
  "۹": 1434,
  "܀": 1435,
  "܁": 1436,
  "܍": 1437,
  "܎": 1438,
  "ܐ": 1439,
  "ܒ": 1440,
  "ܓ": 1441,
  "ܕ": 1442,
  "ܗ": 1443,
  "ܘ": 1444,
  "ܙ": 1445,
  "ܚ": 1446,
  "ܛ": 1447,
  "ܝ": 1448,
  "ܟ": 1449,
  "ܠ": 1450,
  "ܡ": 1451,
  "ܢ": 1452,
  "ܣ": 1453,
  "ܥ": 1454,
  "ܦ": 1455,
  "ܪ": 1456,
  "ܫ": 1457,
  "ܬ": 1458,
  "ܲ": 1459,
  "ܹ": 1460,
  "ݥ": 1461,
  "ހ": 1462,
  "ނ": 1463,
  "ރ": 1464,
  "ބ": 1465,
  "ކ": 1466,
  "އ": 1467,
  "ވ": 1468,
  "މ": 1469,
  "ދ": 1470,
  "ގ": 1471,
  "ސ": 1472,
  "ޔ": 1473,
  "ޖ": 1474,
  "ޝ": 1475,
  "ަ": 1476,
  "ާ": 1477,
  "ި": 1478,
  "ު": 1479,
  "ޫ": 1480,
  "ެ": 1481,
  "ޭ": 1482,
  "ޯ": 1483,
  "ް": 1484,
  "߂": 1485,
  "ߊ": 1486,
  "ߋ": 1487,
  "ߌ": 1488,
  "ߏ": 1489,
  "ߕ": 1490,
  "ߖ": 1491,
  "ߛ": 1492,
  "ߝ": 1493,
  "ߞ": 1494,
  "ߟ": 1495,
  "ߡ": 1496,
  "ߣ": 1497,
  "ߴ": 1498,
  "ࠀ": 1499,
  "࠾": 1500,
  "ऀ": 1501,
  "ँ": 1502,
  "ं": 1503,
  "ः": 1504,
  "अ": 1505,
  "आ": 1506,
  "इ": 1507,
  "ई": 1508,
  "उ": 1509,
  "ऊ": 1510,
  "ऋ": 1511,
  "ऌ": 1512,
  "ए": 1513,
  "ऐ": 1514,
  "ओ": 1515,
  "औ": 1516,
  "क": 1517,
  "ख": 1518,
  "ग": 1519,
  "घ": 1520,
  "ङ": 1521,
  "च": 1522,
  "छ": 1523,
  "ज": 1524,
  "झ": 1525,
  "ञ": 1526,
  "ट": 1527,
  "ठ": 1528,
  "ड": 1529,
  "ढ": 1530,
  "ण": 1531,
  "त": 1532,
  "थ": 1533,
  "द": 1534,
  "ध": 1535,
  "न": 1536,
  "प": 1537,
  "फ": 1538,
  "ब": 1539,
  "भ": 1540,
  "म": 1541,
  "य": 1542,
  "र": 1543,
  "ल": 1544,
  "व": 1545,
  "श": 1546,
  "ष": 1547,
  "स": 1548,
  "ह": 1549,
  "़": 1550,
  "ा": 1551,
  "ि": 1552,
  "ी": 1553,
  "ु": 1554,
  "ू": 1555,
  "ृ": 1556,
  "े": 1557,
  "ै": 1558,
  "ॉ": 1559,
  "ो": 1560,
  "ौ": 1561,
  "्": 1562,
  "ॐ": 1563,
  "ॠ": 1564,
  "ॡ": 1565,
  "।": 1566,
  "॥": 1567,
  "०": 1568,
  "१": 1569,
  "३": 1570,
  "५": 1571,
  "६": 1572,
  "९": 1573,
  "ঁ": 1574,
  "ং": 1575,
  "ঃ": 1576,
  "অ": 1577,
  "আ": 1578,
  "ই": 1579,
  "ঈ": 1580,
  "উ": 1581,
  "ঊ": 1582,
  "ঋ": 1583,
  "এ": 1584,
  "ঐ": 1585,
  "ও": 1586,
  "ঔ": 1587,
  "ক": 1588,
  "খ": 1589,
  "গ": 1590,
  "ঘ": 1591,
  "ঙ": 1592,
  "চ": 1593,
  "ছ": 1594,
  "জ": 1595,
  "ঝ": 1596,
  "ঞ": 1597,
  "ট": 1598,
  "ঠ": 1599,
  "ড": 1600,
  "ঢ": 1601,
  "ণ": 1602,
  "ত": 1603,
  "থ": 1604,
  "দ": 1605,
  "ধ": 1606,
  "ন": 1607,
  "প": 1608,
  "ফ": 1609,
  "ব": 1610,
  "ভ": 1611,
  "ম": 1612,
  "য": 1613,
  "র": 1614,
  "ল": 1615,
  "শ": 1616,
  "ষ": 1617,
  "স": 1618,
  "হ": 1619,
  "়": 1620,
  "া": 1621,
  "ি": 1622,
  "ী": 1623,
  "ু": 1624,
  "ূ": 1625,
  "ৃ": 1626,
  "ে": 1627,
  "ৈ": 1628,
  "ো": 1629,
  "ৌ": 1630,
  "্": 1631,
  "ৎ": 1632,
  "০": 1633,
  "১": 1634,
  "২": 1635,
  "৩": 1636,
  "৪": 1637,
  "৫": 1638,
  "৬": 1639,
  "৭": 1640,
  "৮": 1641,
  "৯": 1642,
  "ৰ": 1643,
  "ৱ": 1644,
  "৲": 1645,
  "৳": 1646,
  "਀": 1647,
  "ਂ": 1648,
  "ਅ": 1649,
  "ਆ": 1650,
  "ਇ": 1651,
  "ਈ": 1652,
  "ਉ": 1653,
  "ਓ": 1654,
  "ਕ": 1655,
  "ਖ": 1656,
  "ਗ": 1657,
  "ਚ": 1658,
  "ਜ": 1659,
  "ਟ": 1660,
  "ਡ": 1661,
  "ਢ": 1662,
  "ਣ": 1663,
  "ਤ": 1664,
  "ਥ": 1665,
  "ਦ": 1666,
  "ਧ": 1667,
  "ਨ": 1668,
  "ਪ": 1669,
  "ਫ": 1670,
  "ਬ": 1671,
  "ਭ": 1672,
  "ਮ": 1673,
  "ਰ": 1674,
  "ਲ": 1675,
  "ਵ": 1676,
  "ਸ": 1677,
  "ਹ": 1678,
  "਼": 1679,
  "ਾ": 1680,
  "ਿ": 1681,
  "ੀ": 1682,
  "ੁ": 1683,
  "ੂ": 1684,
  "ੇ": 1685,
  "ੈ": 1686,
  "ੋ": 1687,
  "੍": 1688,
  "ੜ": 1689,
  "੭": 1690,
  "ੰ": 1691,
  "ੱ": 1692,
  "અ": 1693,
  "એ": 1694,
  "ક": 1695,
  "ગ": 1696,
  "જ": 1697,
  "ટ": 1698,
  "ઠ": 1699,
  "ડ": 1700,
  "ઢ": 1701,
  "ણ": 1702,
  "ત": 1703,
  "થ": 1704,
  "દ": 1705,
  "ન": 1706,
  "પ": 1707,
  "બ": 1708,
  "ભ": 1709,
  "મ": 1710,
  "ય": 1711,
  "ર": 1712,
  "લ": 1713,
  "વ": 1714,
  "શ": 1715,
  "ષ": 1716,
  "હ": 1717,
  "ા": 1718,
  "િ": 1719,
  "ી": 1720,
  "ુ": 1721,
  "ૂ": 1722,
  "ે": 1723,
  "ો": 1724,
  "્": 1725,
  "૱": 1726,
  "଀": 1727,
  "ଂ": 1728,
  "ଃ": 1729,
  "ଆ": 1730,
  "ଓ": 1731,
  "ଗ": 1732,
  "ଙ": 1733,
  "ଡ": 1734,
  "ନ": 1735,
  "ବ": 1736,
  "ର": 1737,
  "ଶ": 1738,
  "ସ": 1739,
  "଼": 1740,
  "ା": 1741,
  "ି": 1742,
  "େ": 1743,
  "୍": 1744,
  "ୱ": 1745,
  "அ": 1746,
  "ஆ": 1747,
  "இ": 1748,
  "உ": 1749,
  "ஐ": 1750,
  "ஒ": 1751,
  "க": 1752,
  "ங": 1753,
  "ச": 1754,
  "ஜ": 1755,
  "ஞ": 1756,
  "ட": 1757,
  "ண": 1758,
  "த": 1759,
  "ந": 1760,
  "ன": 1761,
  "ப": 1762,
  "ம": 1763,
  "ய": 1764,
  "ர": 1765,
  "ற": 1766,
  "ல": 1767,
  "ள": 1768,
  "ழ": 1769,
  "வ": 1770,
  "ஸ": 1771,
  "ா": 1772,
  "ி": 1773,
  "ீ": 1774,
  "ு": 1775,
  "ூ": 1776,
  "ெ": 1777,
  "ே": 1778,
  "ை": 1779,
  "ொ": 1780,
  "ோ": 1781,
  "்": 1782,
  "௹": 1783,
  "ఀ": 1784,
  "ం": 1785,
  "అ": 1786,
  "ఒ": 1787,
  "ఔ": 1788,
  "క": 1789,
  "గ": 1790,
  "చ": 1791,
  "ట": 1792,
  "డ": 1793,
  "ఢ": 1794,
  "ణ": 1795,
  "త": 1796,
  "ద": 1797,
  "న": 1798,
  "ప": 1799,
  "మ": 1800,
  "య": 1801,
  "ర": 1802,
  "ల": 1803,
  "వ": 1804,
  "స": 1805,
  "హ": 1806,
  "ా": 1807,
  "ి": 1808,
  "ు": 1809,
  "ె": 1810,
  "ే": 1811,
  "ొ": 1812,
  "ో": 1813,
  "్": 1814,
  "ౖ": 1815,
  "౦": 1816,
  "౼": 1817,
  "౾": 1818,
  "ಂ": 1819,
  "ಅ": 1820,
  "ಆ": 1821,
  "ಏ": 1822,
  "ಕ": 1823,
  "ಗ": 1824,
  "ಚ": 1825,
  "ಟ": 1826,
  "ಡ": 1827,
  "ಣ": 1828,
  "ತ": 1829,
  "ಥ": 1830,
  "ದ": 1831,
  "ಧ": 1832,
  "ನ": 1833,
  "ಪ": 1834,
  "ಬ": 1835,
  "ಯ": 1836,
  "ರ": 1837,
  "ಲ": 1838,
  "ಳ": 1839,
  "ವ": 1840,
  "ಷ": 1841,
  "ಸ": 1842,
  "ಹ": 1843,
  "ಾ": 1844,
  "ಿ": 1845,
  "ೀ": 1846,
  "ು": 1847,
  "ೂ": 1848,
  "ೆ": 1849,
  "ೇ": 1850,
  "ೈ": 1851,
  "ೋ": 1852,
  "್": 1853,
  "ೠ": 1854,
  "ഀ": 1855,
  "ം": 1856,
  "ഃ": 1857,
  "അ": 1858,
  "ആ": 1859,
  "ഈ": 1860,
  "ഉ": 1861,
  "ക": 1862,
  "ഗ": 1863,
  "ഘ": 1864,
  "ങ": 1865,
  "ച": 1866,
  "ജ": 1867,
  "ട": 1868,
  "ഠ": 1869,
  "ഡ": 1870,
  "ണ": 1871,
  "ത": 1872,
  "ഥ": 1873,
  "ദ": 1874,
  "ന": 1875,
  "പ": 1876,
  "ഭ": 1877,
  "മ": 1878,
  "യ": 1879,
  "ര": 1880,
  "റ": 1881,
  "ല": 1882,
  "ള": 1883,
  "വ": 1884,
  "ശ": 1885,
  "ഷ": 1886,
  "സ": 1887,
  "ഹ": 1888,
  "ാ": 1889,
  "ി": 1890,
  "ീ": 1891,
  "ു": 1892,
  "ൂ": 1893,
  "െ": 1894,
  "േ": 1895,
  "ൈ": 1896,
  "ൊ": 1897,
  "ോ": 1898,
  "്": 1899,
  "൝": 1900,
  "ൠ": 1901,
  "൬": 1902,
  "ൻ": 1903,
  "ർ": 1904,
  "ൾ": 1905,
  "ං": 1906,
  "අ": 1907,
  "ආ": 1908,
  "ඇ": 1909,
  "ඉ": 1910,
  "උ": 1911,
  "එ": 1912,
  "ඔ": 1913,
  "ක": 1914,
  "ග": 1915,
  "ඝ": 1916,
  "ච": 1917,
  "ජ": 1918,
  "ඥ": 1919,
  "ට": 1920,
  "ඩ": 1921,
  "ණ": 1922,
  "ත": 1923,
  "ථ": 1924,
  "ද": 1925,
  "ධ": 1926,
  "න": 1927,
  "ඳ": 1928,
  "ප": 1929,
  "ඵ": 1930,
  "බ": 1931,
  "භ": 1932,
  "ම": 1933,
  "ඹ": 1934,
  "ය": 1935,
  "ර": 1936,
  "ල": 1937,
  "ව": 1938,
  "ශ": 1939,
  "ෂ": 1940,
  "ස": 1941,
  "හ": 1942,
  "ළ": 1943,
  "්": 1944,
  "ා": 1945,
  "ැ": 1946,
  "ෑ": 1947,
  "ි": 1948,
  "ී": 1949,
  "ු": 1950,
  "ූ": 1951,
  "ෘ": 1952,
  "ෙ": 1953,
  "ේ": 1954,
  "ො": 1955,
  "ෝ": 1956,
  "฀": 1957,
  "ก": 1958,
  "ข": 1959,
  "ค": 1960,
  "ฅ": 1961,
  "ฆ": 1962,
  "ง": 1963,
  "จ": 1964,
  "ฉ": 1965,
  "ช": 1966,
  "ซ": 1967,
  "ญ": 1968,
  "ฎ": 1969,
  "ฏ": 1970,
  "ฐ": 1971,
  "ฑ": 1972,
  "ฒ": 1973,
  "ณ": 1974,
  "ด": 1975,
  "ต": 1976,
  "ถ": 1977,
  "ท": 1978,
  "ธ": 1979,
  "น": 1980,
  "บ": 1981,
  "ป": 1982,
  "ผ": 1983,
  "ฝ": 1984,
  "พ": 1985,
  "ฟ": 1986,
  "ภ": 1987,
  "ม": 1988,
  "ย": 1989,
  "ร": 1990,
  "ฤ": 1991,
  "ล": 1992,
  "ฦ": 1993,
  "ว": 1994,
  "ศ": 1995,
  "ษ": 1996,
  "ส": 1997,
  "ห": 1998,
  "ฬ": 1999,
  "อ": 2000,
  "ฮ": 2001,
  "ฯ": 2002,
  "ะ": 2003,
  "ั": 2004,
  "า": 2005,
  "ำ": 2006,
  "ิ": 2007,
  "ี": 2008,
  "ึ": 2009,
  "ื": 2010,
  "ุ": 2011,
  "ู": 2012,
  "ฺ": 2013,
  "฿": 2014,
  "เ": 2015,
  "แ": 2016,
  "โ": 2017,
  "ใ": 2018,
  "ไ": 2019,
  "ๅ": 2020,
  "ๆ": 2021,
  "็": 2022,
  "่": 2023,
  "้": 2024,
  "๊": 2025,
  "๋": 2026,
  "์": 2027,
  "๏": 2028,
  "๐": 2029,
  "๑": 2030,
  "๓": 2031,
  "ກ": 2032,
  "ຂ": 2033,
  "ຄ": 2034,
  "ງ": 2035,
  "ຈ": 2036,
  "ດ": 2037,
  "ຕ": 2038,
  "ທ": 2039,
  "ນ": 2040,
  "ບ": 2041,
  "ປ": 2042,
  "ຜ": 2043,
  "ພ": 2044,
  "ຠ": 2045,
  "ມ": 2046,
  "ລ": 2047,
  "ວ": 2048,
  "ສ": 2049,
  "ຫ": 2050,
  "ອ": 2051,
  "ະ": 2052,
  "ັ": 2053,
  "າ": 2054,
  "ຳ": 2055,
  "ິ": 2056,
  "ື": 2057,
  "ຸ": 2058,
  "ູ": 2059,
  "ົ": 2060,
  "ຽ": 2061,
  "ເ": 2062,
  "ແ": 2063,
  "ໄ": 2064,
  "່": 2065,
  "້": 2066,
  "໧": 2067,
  "໴": 2068,
  "༈": 2069,
  "་": 2070,
  "།": 2071,
  "༒": 2072,
  "༓": 2073,
  "༖": 2074,
  "༠": 2075,
  "༺": 2076,
  "༻": 2077,
  "༼": 2078,
  "༽": 2079,
  "ཀ": 2080,
  "ཁ": 2081,
  "ག": 2082,
  "ང": 2083,
  "ཅ": 2084,
  "ཆ": 2085,
  "ཇ": 2086,
  "ཉ": 2087,
  "ཏ": 2088,
  "ཐ": 2089,
  "ད": 2090,
  "ན": 2091,
  "པ": 2092,
  "ཕ": 2093,
  "བ": 2094,
  "མ": 2095,
  "ཙ": 2096,
  "ཚ": 2097,
  "ཛ": 2098,
  "ཝ": 2099,
  "ཞ": 2100,
  "ཟ": 2101,
  "འ": 2102,
  "ཡ": 2103,
  "ར": 2104,
  "ལ": 2105,
  "ཤ": 2106,
  "ས": 2107,
  "ཧ": 2108,
  "ཱ": 2109,
  "ི": 2110,
  "ུ": 2111,
  "ེ": 2112,
  "ོ": 2113,
  "ཾ": 2114,
  "ྐ": 2115,
  "ྒ": 2116,
  "ྗ": 2117,
  "ྟ": 2118,
  "ྤ": 2119,
  "ྦ": 2120,
  "ྨ": 2121,
  "ྩ": 2122,
  "ྫ": 2123,
  "ྭ": 2124,
  "ྱ": 2125,
  "ྲ": 2126,
  "ླ": 2127,
  "ྷ": 2128,
  "྾": 2129,
  "࿆": 2130,
  "က": 2131,
  "ခ": 2132,
  "င": 2133,
  "စ": 2134,
  "ဆ": 2135,
  "ည": 2136,
  "တ": 2137,
  "ထ": 2138,
  "ဒ": 2139,
  "န": 2140,
  "ပ": 2141,
  "ဖ": 2142,
  "ဗ": 2143,
  "ဘ": 2144,
  "မ": 2145,
  "ယ": 2146,
  "ရ": 2147,
  "လ": 2148,
  "ဝ": 2149,
  "သ": 2150,
  "ဟ": 2151,
  "ဠ": 2152,
  "အ": 2153,
  "ဥ": 2154,
  "ဦ": 2155,
  "ါ": 2156,
  "ာ": 2157,
  "ိ": 2158,
  "ီ": 2159,
  "ု": 2160,
  "ူ": 2161,
  "ေ": 2162,
  "ဲ": 2163,
  "ဳ": 2164,
  "ံ": 2165,
  "့": 2166,
  "း": 2167,
  "္": 2168,
  "်": 2169,
  "ျ": 2170,
  "ြ": 2171,
  "ွ": 2172,
  "ှ": 2173,
  "၀": 2174,
  "၁": 2175,
  "၅": 2176,
  "၆": 2177,
  "၇": 2178,
  "၉": 2179,
  "၊": 2180,
  "။": 2181,
  "၏": 2182,
  "ၔ": 2183,
  "ၢ": 2184,
  "ၵ": 2185,
  "ၸ": 2186,
  "ၼ": 2187,
  "ၾ": 2188,
  "ၿ": 2189,
  "ႀ": 2190,
  "ႆ": 2191,
  "ႈ": 2192,
  "ႉ": 2193,
  "ႏ": 2194,
  "႐": 2195,
  "႔": 2196,
  "႕": 2197,
  "Ⴊ": 2198,
  "ა": 2199,
  "ბ": 2200,
  "გ": 2201,
  "დ": 2202,
  "ე": 2203,
  "ვ": 2204,
  "ზ": 2205,
  "თ": 2206,
  "ი": 2207,
  "კ": 2208,
  "ლ": 2209,
  "მ": 2210,
  "ნ": 2211,
  "ო": 2212,
  "პ": 2213,
  "ჟ": 2214,
  "რ": 2215,
  "ს": 2216,
  "ტ": 2217,
  "უ": 2218,
  "ფ": 2219,
  "ქ": 2220,
  "ღ": 2221,
  "ყ": 2222,
  "შ": 2223,
  "ჩ": 2224,
  "ც": 2225,
  "ძ": 2226,
  "წ": 2227,
  "ჭ": 2228,
  "ხ": 2229,
  "ჯ": 2230,
  "ჰ": 2231,
  "ჲ": 2232,
  "ᄀ": 2233,
  "ᄁ": 2234,
  "ᄃ": 2235,
  "ᄆ": 2236,
  "ᄈ": 2237,
  "ᄉ": 2238,
  "ᄋ": 2239,
  "ᄌ": 2240,
  "ᄑ": 2241,
  "ᄒ": 2242,
  "ᄚ": 2243,
  "ᄜ": 2244,
  "ᅟ": 2245,
  "ᅠ": 2246,
  "ᆬ": 2247,
  "ሀ": 2248,
  "ሃ": 2249,
  "ሄ": 2250,
  "ሆ": 2251,
  "ለ": 2252,
  "ሊ": 2253,
  "ላ": 2254,
  "ሌ": 2255,
  "ል": 2256,
  "ሎ": 2257,
  "ሔ": 2258,
  "ሕ": 2259,
  "መ": 2260,
  "ሚ": 2261,
  "ማ": 2262,
  "ም": 2263,
  "ሞ": 2264,
  "ሠ": 2265,
  "ሥ": 2266,
  "ረ": 2267,
  "ሩ": 2268,
  "ሪ": 2269,
  "ራ": 2270,
  "ሬ": 2271,
  "ር": 2272,
  "ሮ": 2273,
  "ሰ": 2274,
  "ሲ": 2275,
  "ሳ": 2276,
  "ስ": 2277,
  "ሸ": 2278,
  "ሽ": 2279,
  "ቀ": 2280,
  "ቁ": 2281,
  "ቂ": 2282,
  "ቅ": 2283,
  "ቆ": 2284,
  "በ": 2285,
  "ቡ": 2286,
  "ቢ": 2287,
  "ባ": 2288,
  "ቤ": 2289,
  "ብ": 2290,
  "ተ": 2291,
  "ቱ": 2292,
  "ታ": 2293,
  "ት": 2294,
  "ች": 2295,
  "ኃ": 2296,
  "ኋ": 2297,
  "ነ": 2298,
  "ና": 2299,
  "ኔ": 2300,
  "ን": 2301,
  "ኖ": 2302,
  "ኘ": 2303,
  "ኛ": 2304,
  "ኝ": 2305,
  "አ": 2306,
  "ኢ": 2307,
  "እ": 2308,
  "ከ": 2309,
  "ካ": 2310,
  "ክ": 2311,
  "ወ": 2312,
  "ዉ": 2313,
  "ዊ": 2314,
  "ዋ": 2315,
  "ዌ": 2316,
  "ው": 2317,
  "ዎ": 2318,
  "ዓ": 2319,
  "ዘ": 2320,
  "ዛ": 2321,
  "ዜ": 2322,
  "የ": 2323,
  "ያ": 2324,
  "ይ": 2325,
  "ዮ": 2326,
  "ደ": 2327,
  "ዲ": 2328,
  "ዳ": 2329,
  "ዴ": 2330,
  "ድ": 2331,
  "ጀ": 2332,
  "ጃ": 2333,
  "ጅ": 2334,
  "ገ": 2335,
  "ጊ": 2336,
  "ጋ": 2337,
  "ግ": 2338,
  "ጎ": 2339,
  "ጠ": 2340,
  "ጡ": 2341,
  "ጣ": 2342,
  "ጥ": 2343,
  "ጦ": 2344,
  "ጵ": 2345,
  "ጽ": 2346,
  "ፉ": 2347,
  "ፊ": 2348,
  "ፋ": 2349,
  "ፌ": 2350,
  "ፍ": 2351,
  "ፐ": 2352,
  "ፒ": 2353,
  "።": 2354,
  "᎒": 2355,
  "Ꭵ": 2356,
  "Ꭷ": 2357,
  "Ꮆ": 2358,
  "Ꮒ": 2359,
  "Ꮓ": 2360,
  "Ꮙ": 2361,
  "Ꮢ": 2362,
  "Ꮥ": 2363,
  "Ꮧ": 2364,
  "Ꮭ": 2365,
  "Ꮺ": 2366,
  "᐀": 2367,
  "ᐁ": 2368,
  "ᐃ": 2369,
  "ᐅ": 2370,
  "ᐈ": 2371,
  "ᐉ": 2372,
  "ᐊ": 2373,
  "ᐋ": 2374,
  "ᐒ": 2375,
  "ᐖ": 2376,
  "ᐗ": 2377,
  "ᐘ": 2378,
  "ᐛ": 2379,
  "ᐟ": 2380,
  "ᐠ": 2381,
  "ᐢ": 2382,
  "ᐣ": 2383,
  "ᐤ": 2384,
  "ᐥ": 2385,
  "ᐦ": 2386,
  "ᐧ": 2387,
  "ᐨ": 2388,
  "ᐩ": 2389,
  "ᐯ": 2390,
  "ᐱ": 2391,
  "ᐲ": 2392,
  "ᐳ": 2393,
  "ᐶ": 2394,
  "ᐷ": 2395,
  "ᐸ": 2396,
  "ᑀ": 2397,
  "ᑅ": 2398,
  "ᑉ": 2399,
  "ᑊ": 2400,
  "ᑌ": 2401,
  "ᑎ": 2402,
  "ᑕ": 2403,
  "ᑖ": 2404,
  "ᑥ": 2405,
  "ᑦ": 2406,
  "ᑯ": 2407,
  "ᑲ": 2408,
  "ᑿ": 2409,
  "ᒂ": 2410,
  "ᒃ": 2411,
  "ᒄ": 2412,
  "ᒋ": 2413,
  "ᒐ": 2414,
  "ᒑ": 2415,
  "ᒠ": 2416,
  "ᒡ": 2417,
  "ᒥ": 2418,
  "ᒦ": 2419,
  "ᒪ": 2420,
  "ᒶ": 2421,
  "ᒷ": 2422,
  "ᒺ": 2423,
  "ᒼ": 2424,
  "ᒽ": 2425,
  "ᓂ": 2426,
  "ᓄ": 2427,
  "ᓏ": 2428,
  "ᓑ": 2429,
  "ᓓ": 2430,
  "ᓕ": 2431,
  "ᓗ": 2432,
  "ᓚ": 2433,
  "ᓯ": 2434,
  "ᓴ": 2435,
  "ᔀ": 2436,
  "ᔄ": 2437,
  "ᔅ": 2438,
  "ᔉ": 2439,
  "ᔊ": 2440,
  "ᔌ": 2441,
  "ᔍ": 2442,
  "ᔎ": 2443,
  "ᔏ": 2444,
  "ᔐ": 2445,
  "ᔑ": 2446,
  "ᔓ": 2447,
  "ᔕ": 2448,
  "ᔞ": 2449,
  "ᔠ": 2450,
  "ᔨ": 2451,
  "ᔭ": 2452,
  "ᔽ": 2453,
  "ᕃ": 2454,
  "ᕆ": 2455,
  "ᕈ": 2456,
  "ᕋ": 2457,
  "ᕐ": 2458,
  "ᕑ": 2459,
  "ᕓ": 2460,
  "ᕕ": 2461,
  "ᕗ": 2462,
  "ᕙ": 2463,
  "ᕞ": 2464,
  "ᕠ": 2465,
  "ᕤ": 2466,
  "ᕦ": 2467,
  "ᕬ": 2468,
  "ᕭ": 2469,
  "ᕮ": 2470,
  "ᕳ": 2471,
  "ᕹ": 2472,
  "ᕼ": 2473,
  "ᕽ": 2474,
  "ᕿ": 2475,
  "ᖃ": 2476,
  "ᖅ": 2477,
  "ᖏ": 2478,
  "ᖑ": 2479,
  "ᖓ": 2480,
  "ᖕ": 2481,
  "ᖖ": 2482,
  "ᖤ": 2483,
  "ᖲ": 2484,
  "ᖶ": 2485,
  "ᖺ": 2486,
  "ᖾ": 2487,
  "ᗃ": 2488,
  "ᗎ": 2489,
  "ᗐ": 2490,
  "ᗒ": 2491,
  "ᗕ": 2492,
  "ᗚ": 2493,
  "ᗩ": 2494,
  "ᗷ": 2495,
  "ᘀ": 2496,
  "ᘜ": 2497,
  "᙮": 2498,
  "ᙵ": 2499,
  "ᚠ": 2500,
  "ᚢ": 2501,
  "ᚨ": 2502,
  "ᚷ": 2503,
  "ᚼ": 2504,
  "ᚾ": 2505,
  "ᛁ": 2506,
  "ᛃ": 2507,
  "ᛅ": 2508,
  "ᛇ": 2509,
  "ᛉ": 2510,
  "ᛊ": 2511,
  "ᛋ": 2512,
  "ᛒ": 2513,
  "ᛖ": 2514,
  "ᛝ": 2515,
  "ᛞ": 2516,
  "ᛥ": 2517,
  "ᛦ": 2518,
  "᛫": 2519,
  "ᜀ": 2520,
  "ᜌ": 2521,
  "ក": 2522,
  "ខ": 2523,
  "គ": 2524,
  "ង": 2525,
  "ច": 2526,
  "ឆ": 2527,
  "ជ": 2528,
  "ញ": 2529,
  "ដ": 2530,
  "ឋ": 2531,
  "ណ": 2532,
  "ត": 2533,
  "ថ": 2534,
  "ទ": 2535,
  "ធ": 2536,
  "ន": 2537,
  "ប": 2538,
  "ផ": 2539,
  "ព": 2540,
  "ភ": 2541,
  "ម": 2542,
  "យ": 2543,
  "រ": 2544,
  "ល": 2545,
  "វ": 2546,
  "ឞ": 2547,
  "ស": 2548,
  "ហ": 2549,
  "ឡ": 2550,
  "អ": 2551,
  "ឱ": 2552,
  "឵": 2553,
  "ា": 2554,
  "ិ": 2555,
  "ី": 2556,
  "ឹ": 2557,
  "ុ": 2558,
  "ូ": 2559,
  "ើ": 2560,
  "ៀ": 2561,
  "េ": 2562,
  "ែ": 2563,
  "ៃ": 2564,
  "ោ": 2565,
  "ៅ": 2566,
  "ំ": 2567,
  "ះ": 2568,
  "៉": 2569,
  "់": 2570,
  "៌": 2571,
  "័": 2572,
  "្": 2573,
  "៛": 2574,
  "២": 2575,
  "᠀": 2576,
  "᠅": 2577,
  "᠌": 2578,
  "᠎": 2579,
  "ᠠ": 2580,
  "ᠤ": 2581,
  "ᠨ": 2582,
  "ᠭ": 2583,
  "ᠮ": 2584,
  "ᠳ": 2585,
  "ᤌ": 2586,
  "ᤐ": 2587,
  "ᤕ": 2588,
  "ᤠ": 2589,
  "ᤢ": 2590,
  "ᤰ": 2591,
  "ᤱ": 2592,
  "ᤴ": 2593,
  "ᥒ": 2594,
  "ᥔ": 2595,
  "ᥕ": 2596,
  "ᥙ": 2597,
  "ᥜ": 2598,
  "ᥢ": 2599,
  "ᥣ": 2600,
  "ᥪ": 2601,
  "ᥫ": 2602,
  "ᥱ": 2603,
  "ᥳ": 2604,
  "ᥴ": 2605,
  "ᨀ": 2606,
  "ᬩ": 2607,
  "ᬬ": 2608,
  "ᬮ": 2609,
  "᬴": 2610,
  "ᬶ": 2611,
  "ᰀ": 2612,
  "ᱛ": 2613,
  "ᱟ": 2614,
  "ᱤ": 2615,
  "ᱥ": 2616,
  "ᱱ": 2617,
  "ᱲ": 2618,
  "᳠": 2619,
  "᳿": 2620,
  "ᴀ": 2621,
  "ᴂ": 2622,
  "ᴃ": 2623,
  "ᴄ": 2624,
  "ᴅ": 2625,
  "ᴇ": 2626,
  "ᴈ": 2627,
  "ᴉ": 2628,
  "ᴊ": 2629,
  "ᴋ": 2630,
  "ᴍ": 2631,
  "ᴎ": 2632,
  "ᴏ": 2633,
  "ᴐ": 2634,
  "ᴑ": 2635,
  "ᴓ": 2636,
  "ᴗ": 2637,
  "ᴘ": 2638,
  "ᴙ": 2639,
  "ᴛ": 2640,
  "ᴜ": 2641,
  "ᴠ": 2642,
  "ᴡ": 2643,
  "ᴥ": 2644,
  "ᴦ": 2645,
  "ᴧ": 2646,
  "ᴨ": 2647,
  "ᴩ": 2648,
  "ᴬ": 2649,
  "ᴮ": 2650,
  "ᴰ": 2651,
  "ᴱ": 2652,
  "ᴳ": 2653,
  "ᴴ": 2654,
  "ᴶ": 2655,
  "ᴷ": 2656,
  "ᴸ": 2657,
  "ᴹ": 2658,
  "ᴺ": 2659,
  "ᴼ": 2660,
  "ᵀ": 2661,
  "ᵃ": 2662,
  "ᵈ": 2663,
  "ᵉ": 2664,
  "ᵊ": 2665,
  "ᵍ": 2666,
  "ᵐ": 2667,
  "ᵒ": 2668,
  "ᵔ": 2669,
  "ᵕ": 2670,
  "ᵖ": 2671,
  "ᵗ": 2672,
  "ᵘ": 2673,
  "ᵛ": 2674,
  "ᵠ": 2675,
  "ᵡ": 2676,
  "ᵧ": 2677,
  "ᵻ": 2678,
  "ᵼ": 2679,
  "ᶁ": 2680,
  "ᶈ": 2681,
  "ᶜ": 2682,
  "ᶟ": 2683,
  "ᶠ": 2684,
  "ᶤ": 2685,
  "ᶦ": 2686,
  "ᶰ": 2687,
  "ᶾ": 2688,
  "ḇ": 2689,
  "ḉ": 2690,
  "Ḍ": 2691,
  "ḍ": 2692,
  "ḏ": 2693,
  "Ḑ": 2694,
  "ḑ": 2695,
  "Ḗ": 2696,
  "ḗ": 2697,
  "ḙ": 2698,
  "Ḡ": 2699,
  "ḡ": 2700,
  "Ḥ": 2701,
  "ḥ": 2702,
  "Ḫ": 2703,
  "ḫ": 2704,
  "ḯ": 2705,
  "Ḱ": 2706,
  "ḱ": 2707,
  "Ḳ": 2708,
  "ḳ": 2709,
  "Ḵ": 2710,
  "ḵ": 2711,
  "Ḷ": 2712,
  "ḷ": 2713,
  "ḽ": 2714,
  "Ḿ": 2715,
  "ṁ": 2716,
  "ṃ": 2717,
  "ṅ": 2718,
  "ṇ": 2719,
  "ṓ": 2720,
  "ṕ": 2721,
  "ṙ": 2722,
  "ṛ": 2723,
  "ṝ": 2724,
  "Ṡ": 2725,
  "ṡ": 2726,
  "Ṣ": 2727,
  "ṣ": 2728,
  "ṫ": 2729,
  "Ṭ": 2730,
  "ṭ": 2731,
  "ṯ": 2732,
  "ṵ": 2733,
  "ṷ": 2734,
  "ṻ": 2735,
  "ṽ": 2736,
  "ẁ": 2737,
  "Ẃ": 2738,
  "ẉ": 2739,
  "ẑ": 2740,
  "Ẓ": 2741,
  "ẓ": 2742,
  "ẕ": 2743,
  "ẖ": 2744,
  "ẗ": 2745,
  "ẚ": 2746,
  "ẛ": 2747,
  "ẞ": 2748,
  "Ạ": 2749,
  "ạ": 2750,
  "Ả": 2751,
  "ả": 2752,
  "Ấ": 2753,
  "ấ": 2754,
  "Ầ": 2755,
  "ầ": 2756,
  "ẩ": 2757,
  "ẫ": 2758,
  "Ậ": 2759,
  "ậ": 2760,
  "ắ": 2761,
  "ằ": 2762,
  "ẵ": 2763,
  "ặ": 2764,
  "Ẹ": 2765,
  "ẹ": 2766,
  "ẻ": 2767,
  "Ẽ": 2768,
  "ẽ": 2769,
  "Ế": 2770,
  "ế": 2771,
  "Ề": 2772,
  "ề": 2773,
  "Ể": 2774,
  "ể": 2775,
  "ễ": 2776,
  "Ệ": 2777,
  "ệ": 2778,
  "ỉ": 2779,
  "Ị": 2780,
  "ị": 2781,
  "Ọ": 2782,
  "ọ": 2783,
  "ỏ": 2784,
  "Ố": 2785,
  "ố": 2786,
  "Ồ": 2787,
  "ồ": 2788,
  "Ổ": 2789,
  "ổ": 2790,
  "ỗ": 2791,
  "Ộ": 2792,
  "ộ": 2793,
  "Ớ": 2794,
  "ớ": 2795,
  "Ờ": 2796,
  "ờ": 2797,
  "ở": 2798,
  "Ỡ": 2799,
  "ỡ": 2800,
  "ợ": 2801,
  "Ụ": 2802,
  "ụ": 2803,
  "ủ": 2804,
  "Ứ": 2805,
  "ứ": 2806,
  "ừ": 2807,
  "ử": 2808,
  "ữ": 2809,
  "Ự": 2810,
  "ự": 2811,
  "ỳ": 2812,
  "ỵ": 2813,
  "ỷ": 2814,
  "Ỹ": 2815,
  "ỹ": 2816,
  "ἀ": 2817,
  "ἁ": 2818,
  "ἂ": 2819,
  "ἃ": 2820,
  "ἄ": 2821,
  "ἅ": 2822,
  "ἆ": 2823,
  "Ἀ": 2824,
  "Ἁ": 2825,
  "Ἃ": 2826,
  "Ἄ": 2827,
  "Ἅ": 2828,
  "ἐ": 2829,
  "ἑ": 2830,
  "ἒ": 2831,
  "ἔ": 2832,
  "ἕ": 2833,
  "Ἐ": 2834,
  "Ἑ": 2835,
  "Ἔ": 2836,
  "Ἕ": 2837,
  "ἠ": 2838,
  "ἡ": 2839,
  "ἢ": 2840,
  "ἣ": 2841,
  "ἤ": 2842,
  "ἥ": 2843,
  "ἦ": 2844,
  "ἧ": 2845,
  "Ἠ": 2846,
  "Ἡ": 2847,
  "Ἤ": 2848,
  "ἰ": 2849,
  "ἱ": 2850,
  "ἲ": 2851,
  "ἳ": 2852,
  "ἴ": 2853,
  "ἵ": 2854,
  "ἶ": 2855,
  "ἷ": 2856,
  "Ἰ": 2857,
  "Ἱ": 2858,
  "Ἴ": 2859,
  "Ἶ": 2860,
  "Ἷ": 2861,
  "ὀ": 2862,
  "ὁ": 2863,
  "ὂ": 2864,
  "ὃ": 2865,
  "ὄ": 2866,
  "ὅ": 2867,
  "Ὀ": 2868,
  "Ὁ": 2869,
  "Ὂ": 2870,
  "Ὄ": 2871,
  "Ὅ": 2872,
  "ὐ": 2873,
  "ὑ": 2874,
  "ὔ": 2875,
  "ὕ": 2876,
  "ὖ": 2877,
  "ὗ": 2878,
  "Ὑ": 2879,
  "Ὕ": 2880,
  "ὠ": 2881,
  "ὡ": 2882,
  "ὢ": 2883,
  "ὣ": 2884,
  "ὤ": 2885,
  "ὥ": 2886,
  "ὦ": 2887,
  "ὧ": 2888,
  "Ὠ": 2889,
  "Ὡ": 2890,
  "Ὧ": 2891,
  "ὰ": 2892,
  "ὲ": 2893,
  "ὴ": 2894,
  "ὶ": 2895,
  "ὸ": 2896,
  "ὺ": 2897,
  "ὼ": 2898,
  "ᾄ": 2899,
  "ᾖ": 2900,
  "ᾗ": 2901,
  "ᾠ": 2902,
  "ᾧ": 2903,
  "ᾰ": 2904,
  "ᾱ": 2905,
  "ᾳ": 2906,
  "ᾴ": 2907,
  "ᾶ": 2908,
  "ᾷ": 2909,
  "Ᾱ": 2910,
  "᾽": 2911,
  "᾿": 2912,
  "῀": 2913,
  "ῂ": 2914,
  "ῃ": 2915,
  "ῄ": 2916,
  "ῆ": 2917,
  "ῇ": 2918,
  "ῐ": 2919,
  "ῑ": 2920,
  "ῖ": 2921,
  "Ῑ": 2922,
  "῝": 2923,
  "ῠ": 2924,
  "ῡ": 2925,
  "ῤ": 2926,
  "ῥ": 2927,
  "ῦ": 2928,
  "Ῡ": 2929,
  "Ῥ": 2930,
  "ῳ": 2931,
  "ῴ": 2932,
  "ῶ": 2933,
  "ῷ": 2934,
  "Ὸ": 2935,
  "ῼ": 2936,
  "῾": 2937,
  " ": 2938,
  " ": 2939,
  " ": 2940,
  " ": 2941,
  " ": 2942,
  " ": 2943,
  " ": 2944,
  " ": 2945,
  " ": 2946,
  "​": 2947,
  "‌": 2948,
  "‍": 2949,
  "‎": 2950,
  "‏": 2951,
  "‐": 2952,
  "‑": 2953,
  "‒": 2954,
  "–": 2955,
  "—": 2956,
  "―": 2957,
  "‖": 2958,
  "‗": 2959,
  "‘": 2960,
  "’": 2961,
  "‚": 2962,
  "“": 2963,
  "”": 2964,
  "„": 2965,
  "‟": 2966,
  "†": 2967,
  "‡": 2968,
  "•": 2969,
  "‣": 2970,
  "․": 2971,
  "…": 2972,
  "‧": 2973,
  " ": 2974,
  "‪": 2975,
  "‫": 2976,
  "‬": 2977,
  "‭": 2978,
  " ": 2979,
  "‰": 2980,
  "″": 2981,
  "‵": 2982,
  "‷": 2983,
  "‸": 2984,
  "‹": 2985,
  "›": 2986,
  "※": 2987,
  "‼": 2988,
  "‽": 2989,
  "‾": 2990,
  "‿": 2991,
  "⁃": 2992,
  "⁄": 2993,
  "⁇": 2994,
  "⁉": 2995,
  "⁋": 2996,
  "⁎": 2997,
  "⁓": 2998,
  "⁕": 2999,
  "⁚": 3000,
  "⁞": 3001,
  " ": 3002,
  "⁠": 3003,
  "⁡": 3004,
  "⁣": 3005,
  "⁤": 3006,
  "⁦": 3007,
  "⁨": 3008,
  "⁩": 3009,
  "⁰": 3010,
  "ⁱ": 3011,
  "⁲": 3012,
  "⁴": 3013,
  "⁵": 3014,
  "⁶": 3015,
  "⁷": 3016,
  "⁸": 3017,
  "⁹": 3018,
  "⁺": 3019,
  "⁻": 3020,
  "⁽": 3021,
  "⁾": 3022,
  "ⁿ": 3023,
  "₀": 3024,
  "₁": 3025,
  "₂": 3026,
  "₃": 3027,
  "₄": 3028,
  "₅": 3029,
  "₆": 3030,
  "₇": 3031,
  "₈": 3032,
  "₉": 3033,
  "₋": 3034,
  "ₑ": 3035,
  "ₒ": 3036,
  "ₓ": 3037,
  "ₖ": 3038,
  "ₘ": 3039,
  "ₚ": 3040,
  "ₜ": 3041,
  "₡": 3042,
  "₢": 3043,
  "₣": 3044,
  "₤": 3045,
  "₥": 3046,
  "₦": 3047,
  "₧": 3048,
  "₨": 3049,
  "₩": 3050,
  "₪": 3051,
  "₫": 3052,
  "€": 3053,
  "₭": 3054,
  "₮": 3055,
  "₯": 3056,
  "₰": 3057,
  "₱": 3058,
  "₲": 3059,
  "₴": 3060,
  "₵": 3061,
  "₸": 3062,
  "₹": 3063,
  "₺": 3064,
  "₽": 3065,
  "₾": 3066,
  "₿": 3067,
  "⃗": 3068,
  "⃝": 3069,
  "⃟": 3070,
  "⃣": 3071,
  "⃤": 3072,
  "⃦": 3073,
  "⃰": 3074,
  "℀": 3075,
  "ℂ": 3076,
  "℃": 3077,
  "℅": 3078,
  "℉": 3079,
  "ℎ": 3080,
  "ℏ": 3081,
  "ℑ": 3082,
  "ℒ": 3083,
  "ℓ": 3084,
  "ℕ": 3085,
  "№": 3086,
  "℗": 3087,
  "℘": 3088,
  "ℙ": 3089,
  "ℜ": 3090,
  "ℝ": 3091,
  "℟": 3092,
  "℠": 3093,
  "℡": 3094,
  "™": 3095,
  "ℬ": 3096,
  "ℭ": 3097,
  "℮": 3098,
  "ℯ": 3099,
  "ℰ": 3100,
  "Ⅎ": 3101,
  "ℳ": 3102,
  "ℴ": 3103,
  "ℵ": 3104,
  "ℹ": 3105,
  "⅃": 3106,
  "⅄": 3107,
  "⅓": 3108,
  "⅔": 3109,
  "⅕": 3110,
  "⅘": 3111,
  "⅙": 3112,
  "⅚": 3113,
  "⅛": 3114,
  "⅜": 3115,
  "⅝": 3116,
  "⅞": 3117,
  "⅟": 3118,
  "Ⅰ": 3119,
  "Ⅱ": 3120,
  "Ⅲ": 3121,
  "Ⅳ": 3122,
  "Ⅴ": 3123,
  "Ⅵ": 3124,
  "Ⅶ": 3125,
  "Ⅷ": 3126,
  "Ⅸ": 3127,
  "Ⅹ": 3128,
  "Ⅺ": 3129,
  "Ⅻ": 3130,
  "Ⅼ": 3131,
  "Ⅽ": 3132,
  "Ⅿ": 3133,
  "ⅲ": 3134,
  "ⅴ": 3135,
  "ⅹ": 3136,
  "ⅼ": 3137,
  "ⅽ": 3138,
  "ⅾ": 3139,
  "ↀ": 3140,
  "Ↄ": 3141,
  "ↄ": 3142,
  "ↅ": 3143,
  "ↆ": 3144,
  "←": 3145,
  "↑": 3146,
  "→": 3147,
  "↓": 3148,
  "↔": 3149,
  "↕": 3150,
  "↖": 3151,
  "↗": 3152,
  "↘": 3153,
  "↙": 3154,
  "↟": 3155,
  "↡": 3156,
  "↢": 3157,
  "↣": 3158,
  "↥": 3159,
  "↦": 3160,
  "↨": 3161,
  "↩": 3162,
  "↪": 3163,
  "↬": 3164,
  "↭": 3165,
  "↯": 3166,
  "↲": 3167,
  "↳": 3168,
  "↴": 3169,
  "↵": 3170,
  "↶": 3171,
  "↷": 3172,
  "↺": 3173,
  "↻": 3174,
  "⇄": 3175,
  "⇅": 3176,
  "⇆": 3177,
  "⇊": 3178,
  "⇌": 3179,
  "⇐": 3180,
  "⇑": 3181,
  "⇒": 3182,
  "⇓": 3183,
  "⇔": 3184,
  "⇘": 3185,
  "⇚": 3186,
  "⇛": 3187,
  "⇜": 3188,
  "⇝": 3189,
  "⇡": 3190,
  "⇢": 3191,
  "⇣": 3192,
  "⇦": 3193,
  "⇧": 3194,
  "⇨": 3195,
  "⇩": 3196,
  "⇪": 3197,
  "⇮": 3198,
  "⇱": 3199,
  "⇲": 3200,
  "⇶": 3201,
  "⇾": 3202,
  "⇿": 3203,
  "∀": 3204,
  "∁": 3205,
  "∂": 3206,
  "∃": 3207,
  "∄": 3208,
  "∅": 3209,
  "∆": 3210,
  "∇": 3211,
  "∈": 3212,
  "∉": 3213,
  "∋": 3214,
  "∎": 3215,
  "∏": 3216,
  "∑": 3217,
  "−": 3218,
  "∕": 3219,
  "∖": 3220,
  "∗": 3221,
  "∘": 3222,
  "∙": 3223,
  "√": 3224,
  "∛": 3225,
  "∝": 3226,
  "∞": 3227,
  "∟": 3228,
  "∠": 3229,
  "∣": 3230,
  "∥": 3231,
  "∦": 3232,
  "∧": 3233,
  "∨": 3234,
  "∩": 3235,
  "∪": 3236,
  "∫": 3237,
  "∱": 3238,
  "∴": 3239,
  "∵": 3240,
  "∶": 3241,
  "∷": 3242,
  "∻": 3243,
  "∼": 3244,
  "∽": 3245,
  "∿": 3246,
  "≃": 3247,
  "≅": 3248,
  "≈": 3249,
  "≊": 3250,
  "≋": 3251,
  "≠": 3252,
  "≡": 3253,
  "≣": 3254,
  "≤": 3255,
  "≥": 3256,
  "≦": 3257,
  "≧": 3258,
  "≪": 3259,
  "≫": 3260,
  "≳": 3261,
  "≷": 3262,
  "≺": 3263,
  "≻": 3264,
  "⊂": 3265,
  "⊃": 3266,
  "⊄": 3267,
  "⊆": 3268,
  "⊇": 3269,
  "⊕": 3270,
  "⊖": 3271,
  "⊗": 3272,
  "⊙": 3273,
  "⊞": 3274,
  "⊠": 3275,
  "⊢": 3276,
  "⊤": 3277,
  "⊥": 3278,
  "⊧": 3279,
  "⊨": 3280,
  "⊭": 3281,
  "⊰": 3282,
  "⊱": 3283,
  "⊲": 3284,
  "⊳": 3285,
  "⊼": 3286,
  "⋀": 3287,
  "⋁": 3288,
  "⋄": 3289,
  "⋅": 3290,
  "⋆": 3291,
  "⋇": 3292,
  "⋈": 3293,
  "⋉": 3294,
  "⋊": 3295,
  "⋋": 3296,
  "⋌": 3297,
  "⋐": 3298,
  "⋑": 3299,
  "⋔": 3300,
  "⋘": 3301,
  "⋙": 3302,
  "⋞": 3303,
  "⋟": 3304,
  "⋮": 3305,
  "⋯": 3306,
  "⌀": 3307,
  "⌂": 3308,
  "⌄": 3309,
  "⌈": 3310,
  "⌉": 3311,
  "⌊": 3312,
  "⌋": 3313,
  "⌐": 3314,
  "⌓": 3315,
  "⌕": 3316,
  "⌘": 3317,
  "⌚": 3318,
  "⌛": 3319,
  "⌜": 3320,
  "⌝": 3321,
  "⌠": 3322,
  "⌡": 3323,
  "⌣": 3324,
  "⌥": 3325,
  "⌦": 3326,
  "⌨": 3327,
  "⌫": 3328,
  "⌯": 3329,
  "⌱": 3330,
  "⌵": 3331,
  "⌸": 3332,
  "⌿": 3333,
  "⍀": 3334,
  "⍈": 3335,
  "⍉": 3336,
  "⍌": 3337,
  "⍓": 3338,
  "⍕": 3339,
  "⍗": 3340,
  "⍟": 3341,
  "⍴": 3342,
  "⍶": 3343,
  "⍺": 3344,
  "⎌": 3345,
  "⎓": 3346,
  "⎛": 3347,
  "⎜": 3348,
  "⎝": 3349,
  "⎞": 3350,
  "⎟": 3351,
  "⎠": 3352,
  "⎡": 3353,
  "⎢": 3354,
  "⎣": 3355,
  "⎤": 3356,
  "⎥": 3357,
  "⎦": 3358,
  "⎧": 3359,
  "⎨": 3360,
  "⎩": 3361,
  "⎪": 3362,
  "⎫": 3363,
  "⎬": 3364,
  "⎭": 3365,
  "⎮": 3366,
  "⎯": 3367,
  "⎷": 3368,
  "⎻": 3369,
  "⎼": 3370,
  "⎾": 3371,
  "⏎": 3372,
  "⏏": 3373,
  "⏤": 3374,
  "⏩": 3375,
  "⏪": 3376,
  "⏫": 3377,
  "⏬": 3378,
  "⏭": 3379,
  "⏮": 3380,
  "⏯": 3381,
  "⏰": 3382,
  "⏱": 3383,
  "⏲": 3384,
  "⏳": 3385,
  "⏸": 3386,
  "⏹": 3387,
  "⏺": 3388,
  "␃": 3389,
  "␚": 3390,
  "␞": 3391,
  "␣": 3392,
  "⑀": 3393,
  "①": 3394,
  "②": 3395,
  "③": 3396,
  "④": 3397,
  "⑤": 3398,
  "⑥": 3399,
  "⑦": 3400,
  "⑧": 3401,
  "⑨": 3402,
  "⑩": 3403,
  "⑪": 3404,
  "⑫": 3405,
  "⑬": 3406,
  "⑴": 3407,
  "⑵": 3408,
  "⑶": 3409,
  "⑷": 3410,
  "⑸": 3411,
  "⑹": 3412,
  "⑺": 3413,
  "⑻": 3414,
  "⑼": 3415,
  "⑽": 3416,
  "⑾": 3417,
  "⑿": 3418,
  "⒀": 3419,
  "⒁": 3420,
  "⒂": 3421,
  "⒈": 3422,
  "⒉": 3423,
  "⒊": 3424,
  "⒋": 3425,
  "⒰": 3426,
  "Ⓐ": 3427,
  "Ⓒ": 3428,
  "Ⓔ": 3429,
  "Ⓕ": 3430,
  "Ⓖ": 3431,
  "Ⓗ": 3432,
  "Ⓘ": 3433,
  "Ⓚ": 3434,
  "Ⓛ": 3435,
  "Ⓜ": 3436,
  "Ⓝ": 3437,
  "Ⓞ": 3438,
  "Ⓟ": 3439,
  "Ⓡ": 3440,
  "Ⓢ": 3441,
  "Ⓣ": 3442,
  "Ⓤ": 3443,
  "Ⓥ": 3444,
  "Ⓦ": 3445,
  "Ⓧ": 3446,
  "Ⓨ": 3447,
  "Ⓩ": 3448,
  "ⓐ": 3449,
  "ⓑ": 3450,
  "ⓒ": 3451,
  "ⓓ": 3452,
  "ⓔ": 3453,
  "ⓕ": 3454,
  "ⓖ": 3455,
  "ⓗ": 3456,
  "ⓘ": 3457,
  "ⓛ": 3458,
  "ⓜ": 3459,
  "ⓝ": 3460,
  "ⓞ": 3461,
  "ⓟ": 3462,
  "ⓠ": 3463,
  "ⓡ": 3464,
  "ⓢ": 3465,
  "ⓣ": 3466,
  "ⓤ": 3467,
  "ⓥ": 3468,
  "ⓦ": 3469,
  "ⓨ": 3470,
  "⓴": 3471,
  "⓵": 3472,
  "⓶": 3473,
  "⓷": 3474,
  "⓸": 3475,
  "⓹": 3476,
  "⓺": 3477,
  "⓻": 3478,
  "⓼": 3479,
  "⓽": 3480,
  "⓾": 3481,
  "⓿": 3482,
  "─": 3483,
  "━": 3484,
  "│": 3485,
  "┃": 3486,
  "┆": 3487,
  "┇": 3488,
  "┈": 3489,
  "┊": 3490,
  "┌": 3491,
  "┐": 3492,
  "┒": 3493,
  "└": 3494,
  "┘": 3495,
  "├": 3496,
  "┤": 3497,
  "┴": 3498,
  "┼": 3499,
  "╋": 3500,
  "═": 3501,
  "║": 3502,
  "╓": 3503,
  "╔": 3504,
  "╕": 3505,
  "╖": 3506,
  "╗": 3507,
  "╘": 3508,
  "╚": 3509,
  "╝": 3510,
  "╞": 3511,
  "╟": 3512,
  "╠": 3513,
  "╡": 3514,
  "╢": 3515,
  "╣": 3516,
  "╤": 3517,
  "╥": 3518,
  "╦": 3519,
  "╧": 3520,
  "╨": 3521,
  "╩": 3522,
  "╪": 3523,
  "╬": 3524,
  "╲": 3525,
  "╳": 3526,
  "╾": 3527,
  "▀": 3528,
  "▁": 3529,
  "▂": 3530,
  "▃": 3531,
  "▄": 3532,
  "▅": 3533,
  "▆": 3534,
  "▇": 3535,
  "█": 3536,
  "▌": 3537,
  "▍": 3538,
  "▎": 3539,
  "▐": 3540,
  "░": 3541,
  "▒": 3542,
  "▓": 3543,
  "▕": 3544,
  "▞": 3545,
  "■": 3546,
  "□": 3547,
  "▢": 3548,
  "▣": 3549,
  "▪": 3550,
  "▫": 3551,
  "▬": 3552,
  "▭": 3553,
  "▮": 3554,
  "▰": 3555,
  "▲": 3556,
  "△": 3557,
  "▴": 3558,
  "▶": 3559,
  "▷": 3560,
  "▸": 3561,
  "▹": 3562,
  "►": 3563,
  "▻": 3564,
  "▼": 3565,
  "▽": 3566,
  "▾": 3567,
  "▿": 3568,
  "◀": 3569,
  "◁": 3570,
  "◂": 3571,
  "◄": 3572,
  "◅": 3573,
  "◆": 3574,
  "◇": 3575,
  "◈": 3576,
  "◉": 3577,
  "◊": 3578,
  "○": 3579,
  "◌": 3580,
  "◍": 3581,
  "◎": 3582,
  "●": 3583,
  "◐": 3584,
  "◑": 3585,
  "◔": 3586,
  "◕": 3587,
  "◖": 3588,
  "◗": 3589,
  "◘": 3590,
  "◙": 3591,
  "◡": 3592,
  "◢": 3593,
  "◣": 3594,
  "◤": 3595,
  "◦": 3596,
  "◩": 3597,
  "◪": 3598,
  "◯": 3599,
  "◲": 3600,
  "◷": 3601,
  "◺": 3602,
  "◻": 3603,
  "◼": 3604,
  "◽": 3605,
  "◾": 3606,
  "◿": 3607,
  "☀": 3608,
  "☁": 3609,
  "☂": 3610,
  "☃": 3611,
  "☄": 3612,
  "★": 3613,
  "☆": 3614,
  "☇": 3615,
  "☉": 3616,
  "☊": 3617,
  "☎": 3618,
  "☏": 3619,
  "☐": 3620,
  "☑": 3621,
  "☒": 3622,
  "☔": 3623,
  "☕": 3624,
  "☗": 3625,
  "☘": 3626,
  "☙": 3627,
  "☚": 3628,
  "☛": 3629,
  "☜": 3630,
  "☝": 3631,
  "☞": 3632,
  "☟": 3633,
  "☠": 3634,
  "☢": 3635,
  "☣": 3636,
  "☤": 3637,
  "☥": 3638,
  "☦": 3639,
  "☨": 3640,
  "☩": 3641,
  "☪": 3642,
  "☭": 3643,
  "☮": 3644,
  "☯": 3645,
  "☰": 3646,
  "☳": 3647,
  "☶": 3648,
  "☷": 3649,
  "☸": 3650,
  "☹": 3651,
  "☺": 3652,
  "☻": 3653,
  "☼": 3654,
  "☽": 3655,
  "☿": 3656,
  "♀": 3657,
  "♂": 3658,
  "♃": 3659,
  "♄": 3660,
  "♈": 3661,
  "♉": 3662,
  "♊": 3663,
  "♋": 3664,
  "♌": 3665,
  "♍": 3666,
  "♎": 3667,
  "♏": 3668,
  "♐": 3669,
  "♑": 3670,
  "♒": 3671,
  "♓": 3672,
  "♔": 3673,
  "♕": 3674,
  "♙": 3675,
  "♚": 3676,
  "♛": 3677,
  "♞": 3678,
  "♟": 3679,
  "♠": 3680,
  "♡": 3681,
  "♢": 3682,
  "♣": 3683,
  "♤": 3684,
  "♥": 3685,
  "♦": 3686,
  "♧": 3687,
  "♨": 3688,
  "♩": 3689,
  "♪": 3690,
  "♫": 3691,
  "♬": 3692,
  "♭": 3693,
  "♯": 3694,
  "♲": 3695,
  "♹": 3696,
  "♻": 3697,
  "♾": 3698,
  "♿": 3699,
  "⚀": 3700,
  "⚁": 3701,
  "⚂": 3702,
  "⚃": 3703,
  "⚄": 3704,
  "⚅": 3705,
  "⚇": 3706,
  "⚈": 3707,
  "⚐": 3708,
  "⚑": 3709,
  "⚒": 3710,
  "⚓": 3711,
  "⚔": 3712,
  "⚕": 3713,
  "⚖": 3714,
  "⚗": 3715,
  "⚘": 3716,
  "⚙": 3717,
  "⚛": 3718,
  "⚜": 3719,
  "⚝": 3720,
  "⚠": 3721,
  "⚡": 3722,
  "⚢": 3723,
  "⚣": 3724,
  "⚤": 3725,
  "⚦": 3726,
  "⚪": 3727,
  "⚫": 3728,
  "⚬": 3729,
  "⚭": 3730,
  "⚯": 3731,
  "⚰": 3732,
  "⚲": 3733,
  "⚽": 3734,
  "⚾": 3735,
  "⛄": 3736,
  "⛅": 3737,
  "⛈": 3738,
  "⛉": 3739,
  "⛎": 3740,
  "⛏": 3741,
  "⛑": 3742,
  "⛓": 3743,
  "⛔": 3744,
  "⛩": 3745,
  "⛪": 3746,
  "⛰": 3747,
  "⛱": 3748,
  "⛲": 3749,
  "⛳": 3750,
  "⛴": 3751,
  "⛵": 3752,
  "⛷": 3753,
  "⛸": 3754,
  "⛹": 3755,
  "⛺": 3756,
  "⛽": 3757,
  "✀": 3758,
  "✁": 3759,
  "✂": 3760,
  "✄": 3761,
  "✅": 3762,
  "✆": 3763,
  "✈": 3764,
  "✉": 3765,
  "✊": 3766,
  "✋": 3767,
  "✌": 3768,
  "✍": 3769,
  "✎": 3770,
  "✏": 3771,
  "✐": 3772,
  "✑": 3773,
  "✒": 3774,
  "✓": 3775,
  "✔": 3776,
  "✕": 3777,
  "✖": 3778,
  "✗": 3779,
  "✘": 3780,
  "✙": 3781,
  "✚": 3782,
  "✜": 3783,
  "✝": 3784,
  "✞": 3785,
  "✠": 3786,
  "✡": 3787,
  "✢": 3788,
  "✣": 3789,
  "✤": 3790,
  "✥": 3791,
  "✦": 3792,
  "✧": 3793,
  "✨": 3794,
  "✩": 3795,
  "✪": 3796,
  "✫": 3797,
  "✬": 3798,
  "✭": 3799,
  "✮": 3800,
  "✯": 3801,
  "✰": 3802,
  "✱": 3803,
  "✲": 3804,
  "✳": 3805,
  "✴": 3806,
  "✵": 3807,
  "✶": 3808,
  "✷": 3809,
  "✸": 3810,
  "✹": 3811,
  "✺": 3812,
  "✻": 3813,
  "✼": 3814,
  "✽": 3815,
  "✾": 3816,
  "✿": 3817,
  "❀": 3818,
  "❁": 3819,
  "❂": 3820,
  "❃": 3821,
  "❄": 3822,
  "❅": 3823,
  "❆": 3824,
  "❇": 3825,
  "❈": 3826,
  "❉": 3827,
  "❊": 3828,
  "❋": 3829,
  "❌": 3830,
  "❍": 3831,
  "❎": 3832,
  "❏": 3833,
  "❐": 3834,
  "❑": 3835,
  "❒": 3836,
  "❓": 3837,
  "❔": 3838,
  "❕": 3839,
  "❖": 3840,
  "❗": 3841,
  "❘": 3842,
  "❙": 3843,
  "❛": 3844,
  "❜": 3845,
  "❝": 3846,
  "❞": 3847,
  "❢": 3848,
  "❣": 3849,
  "❤": 3850,
  "❥": 3851,
  "❦": 3852,
  "❧": 3853,
  "❮": 3854,
  "❯": 3855,
  "❰": 3856,
  "❱": 3857,
  "❲": 3858,
  "❳": 3859,
  "❶": 3860,
  "❷": 3861,
  "❸": 3862,
  "❹": 3863,
  "❺": 3864,
  "❻": 3865,
  "❼": 3866,
  "❽": 3867,
  "❾": 3868,
  "❿": 3869,
  "➀": 3870,
  "➁": 3871,
  "➂": 3872,
  "➃": 3873,
  "➄": 3874,
  "➅": 3875,
  "➆": 3876,
  "➉": 3877,
  "➊": 3878,
  "➋": 3879,
  "➌": 3880,
  "➍": 3881,
  "➎": 3882,
  "➐": 3883,
  "➔": 3884,
  "➕": 3885,
  "➖": 3886,
  "➘": 3887,
  "➙": 3888,
  "➛": 3889,
  "➜": 3890,
  "➝": 3891,
  "➞": 3892,
  "➟": 3893,
  "➠": 3894,
  "➡": 3895,
  "➢": 3896,
  "➣": 3897,
  "➤": 3898,
  "➥": 3899,
  "➦": 3900,
  "➧": 3901,
  "➨": 3902,
  "➩": 3903,
  "➪": 3904,
  "➫": 3905,
  "➬": 3906,
  "➭": 3907,
  "➮": 3908,
  "➯": 3909,
  "➰": 3910,
  "➱": 3911,
  "➲": 3912,
  "➳": 3913,
  "➴": 3914,
  "➵": 3915,
  "➹": 3916,
  "➺": 3917,
  "➼": 3918,
  "➽": 3919,
  "➾": 3920,
  "➿": 3921,
  "⟋": 3922,
  "⟐": 3923,
  "⟦": 3924,
  "⟧": 3925,
  "⟨": 3926,
  "⟩": 3927,
  "⟪": 3928,
  "⟫": 3929,
  "⟰": 3930,
  "⟱": 3931,
  "⟲": 3932,
  "⟵": 3933,
  "⟶": 3934,
  "⟸": 3935,
  "⟹": 3936,
  "⟺": 3937,
  "⟼": 3938,
  "⠀": 3939,
  "⠂": 3940,
  "⠃": 3941,
  "⠄": 3942,
  "⠕": 3943,
  "⠗": 3944,
  "⠘": 3945,
  "⠙": 3946,
  "⠡": 3947,
  "⠦": 3948,
  "⠬": 3949,
  "⠳": 3950,
  "⠶": 3951,
  "⠸": 3952,
  "⠺": 3953,
  "⤋": 3954,
  "⤓": 3955,
  "⤡": 3956,
  "⤢": 3957,
  "⤧": 3958,
  "⤨": 3959,
  "⤫": 3960,
  "⤮": 3961,
  "⤴": 3962,
  "⤵": 3963,
  "⤶": 3964,
  "⤷": 3965,
  "⤸": 3966,
  "⤻": 3967,
  "⤿": 3968,
  "⥉": 3969,
  "⥊": 3970,
  "⥚": 3971,
  "⥨": 3972,
  "⥽": 3973,
  "⦁": 3974,
  "⦟": 3975,
  "⦰": 3976,
  "⦵": 3977,
  "⦿": 3978,
  "⧫": 3979,
  "⧼": 3980,
  "⧽": 3981,
  "⧿": 3982,
  "⨀": 3983,
  "⨁": 3984,
  "⨇": 3985,
  "⨈": 3986,
  "⨪": 3987,
  "⨯": 3988,
  "⨳": 3989,
  "⩔": 3990,
  "⩽": 3991,
  "⩾": 3992,
  "⪼": 3993,
  "⫝": 3994,
  "⫸": 3995,
  "⬅": 3996,
  "⬆": 3997,
  "⬇": 3998,
  "⬌": 3999,
  "⬑": 4000,
  "⬛": 4001,
  "⬜": 4002,
  "⬟": 4003,
  "⬢": 4004,
  "⬤": 4005,
  "⬥": 4006,
  "⬬": 4007,
  "⭐": 4008,
  "⭑": 4009,
  "⭕": 4010,
  "⮊": 4011,
  "⮚": 4012,
  "⮜": 4013,
  "⮝": 4014,
  "⮞": 4015,
  "⮟": 4016,
  "⮩": 4017,
  "⮮": 4018,
  "⮯": 4019,
  "⯅": 4020,
  "⯆": 4021,
  "⯈": 4022,
  "⯑": 4023,
  "Ⰰ": 4024,
  "Ⰱ": 4025,
  "Ⰳ": 4026,
  "Ⱁ": 4027,
  "Ⱚ": 4028,
  "Ⱜ": 4029,
  "ⱁ": 4030,
  "ⱓ": 4031,
  "Ᵽ": 4032,
  "Ⱪ": 4033,
  "ⱬ": 4034,
  "Ɐ": 4035,
  "Ⱳ": 4036,
  "ⱷ": 4037,
  "Ⲁ": 4038,
  "ⲁ": 4039,
  "ⲃ": 4040,
  "ⲉ": 4041,
  "Ⲏ": 4042,
  "ⲏ": 4043,
  "Ⲓ": 4044,
  "ⲓ": 4045,
  "ⲕ": 4046,
  "ⲙ": 4047,
  "ⲛ": 4048,
  "ⲟ": 4049,
  "Ⲡ": 4050,
  "ⲡ": 4051,
  "ⲣ": 4052,
  "ⲥ": 4053,
  "Ⲧ": 4054,
  "ⲧ": 4055,
  "Ⲫ": 4056,
  "ⲫ": 4057,
  "Ⲭ": 4058,
  "ⲭ": 4059,
  "ⲱ": 4060,
  "Ⳡ": 4061,
  "ⴰ": 4062,
  "ⴱ": 4063,
  "ⴳ": 4064,
  "ⴹ": 4065,
  "ⴻ": 4066,
  "ⵆ": 4067,
  "ⵉ": 4068,
  "ⵌ": 4069,
  "ⵍ": 4070,
  "ⵎ": 4071,
  "ⵏ": 4072,
  "ⵓ": 4073,
  "ⵔ": 4074,
  "ⵖ": 4075,
  "ⵜ": 4076,
  "ⵟ": 4077,
  "ⵢ": 4078,
  "⸰": 4079,
  "⸹": 4080,
  "⸺": 4081,
  "⸻": 4082,
  "⹂": 4083,
  "⹭": 4084,
  "⹲": 4085,
  "⺗": 4086,
  "⺼": 4087,
  "⼯": 4088,
  "⼺": 4089,
  "⽡": 4090,
  "⽢": 4091,
  "⽧": 4092,
  "⽫": 4093,
  "⽬": 4094,
  "⽮": 4095,
  "⽯": 4096,
  "⽴": 4097,
  "⽸": 4098,
  "⿲": 4099,
  "　": 4100,
  "、": 4101,
  "。": 4102,
  "〄": 4103,
  "々": 4104,
  "〈": 4105,
  "〉": 4106,
  "《": 4107,
  "》": 4108,
  "「": 4109,
  "」": 4110,
  "『": 4111,
  "』": 4112,
  "【": 4113,
  "】": 4114,
  "〒": 4115,
  "〓": 4116,
  "〔": 4117,
  "〕": 4118,
  "〖": 4119,
  "〗": 4120,
  "〚": 4121,
  "〛": 4122,
  "〜": 4123,
  "〠": 4124,
  "〯": 4125,
  "〰": 4126,
  "〲": 4127,
  "〽": 4128,
  "ぁ": 4129,
  "あ": 4130,
  "い": 4131,
  "ぅ": 4132,
  "う": 4133,
  "ぇ": 4134,
  "え": 4135,
  "お": 4136,
  "か": 4137,
  "が": 4138,
  "き": 4139,
  "ぎ": 4140,
  "く": 4141,
  "ぐ": 4142,
  "け": 4143,
  "げ": 4144,
  "こ": 4145,
  "ご": 4146,
  "さ": 4147,
  "ざ": 4148,
  "し": 4149,
  "じ": 4150,
  "す": 4151,
  "ず": 4152,
  "せ": 4153,
  "ぜ": 4154,
  "そ": 4155,
  "ぞ": 4156,
  "た": 4157,
  "だ": 4158,
  "ち": 4159,
  "っ": 4160,
  "つ": 4161,
  "づ": 4162,
  "て": 4163,
  "で": 4164,
  "と": 4165,
  "ど": 4166,
  "な": 4167,
  "に": 4168,
  "ぬ": 4169,
  "ね": 4170,
  "の": 4171,
  "は": 4172,
  "ば": 4173,
  "ぱ": 4174,
  "ひ": 4175,
  "び": 4176,
  "ぴ": 4177,
  "ふ": 4178,
  "ぶ": 4179,
  "ぷ": 4180,
  "へ": 4181,
  "べ": 4182,
  "ぺ": 4183,
  "ほ": 4184,
  "ぼ": 4185,
  "ぽ": 4186,
  "ま": 4187,
  "み": 4188,
  "む": 4189,
  "め": 4190,
  "も": 4191,
  "ゃ": 4192,
  "や": 4193,
  "ゅ": 4194,
  "ゆ": 4195,
  "ょ": 4196,
  "よ": 4197,
  "ら": 4198,
  "り": 4199,
  "る": 4200,
  "れ": 4201,
  "ろ": 4202,
  "わ": 4203,
  "を": 4204,
  "ん": 4205,
  "゚": 4206,
  "゜": 4207,
  "ァ": 4208,
  "ア": 4209,
  "ィ": 4210,
  "イ": 4211,
  "ゥ": 4212,
  "ウ": 4213,
  "ェ": 4214,
  "エ": 4215,
  "ォ": 4216,
  "オ": 4217,
  "カ": 4218,
  "ガ": 4219,
  "キ": 4220,
  "ギ": 4221,
  "ク": 4222,
  "グ": 4223,
  "ケ": 4224,
  "ゲ": 4225,
  "コ": 4226,
  "ゴ": 4227,
  "サ": 4228,
  "ザ": 4229,
  "シ": 4230,
  "ジ": 4231,
  "ス": 4232,
  "ズ": 4233,
  "セ": 4234,
  "ゼ": 4235,
  "ソ": 4236,
  "ゾ": 4237,
  "タ": 4238,
  "ダ": 4239,
  "チ": 4240,
  "ヂ": 4241,
  "ッ": 4242,
  "ツ": 4243,
  "テ": 4244,
  "デ": 4245,
  "ト": 4246,
  "ド": 4247,
  "ナ": 4248,
  "ニ": 4249,
  "ヌ": 4250,
  "ネ": 4251,
  "ノ": 4252,
  "ハ": 4253,
  "バ": 4254,
  "パ": 4255,
  "ヒ": 4256,
  "ビ": 4257,
  "ピ": 4258,
  "フ": 4259,
  "ブ": 4260,
  "プ": 4261,
  "ヘ": 4262,
  "ベ": 4263,
  "ペ": 4264,
  "ホ": 4265,
  "ボ": 4266,
  "ポ": 4267,
  "マ": 4268,
  "ミ": 4269,
  "ム": 4270,
  "メ": 4271,
  "モ": 4272,
  "ャ": 4273,
  "ヤ": 4274,
  "ュ": 4275,
  "ユ": 4276,
  "ョ": 4277,
  "ヨ": 4278,
  "ラ": 4279,
  "リ": 4280,
  "ル": 4281,
  "レ": 4282,
  "ロ": 4283,
  "ヮ": 4284,
  "ワ": 4285,
  "ヱ": 4286,
  "ヲ": 4287,
  "ン": 4288,
  "ヴ": 4289,
  "ヵ": 4290,
  "ヶ": 4291,
  "・": 4292,
  "ー": 4293,
  "ヽ": 4294,
  "㄀": 4295,
  "ㄆ": 4296,
  "ㄕ": 4297,
  "ㄚ": 4298,
  "ㄧ": 4299,
  "ㄱ": 4300,
  "ㄲ": 4301,
  "ㄳ": 4302,
  "ㄴ": 4303,
  "ㄷ": 4304,
  "ㄸ": 4305,
  "ㄹ": 4306,
  "ㅁ": 4307,
  "ㅂ": 4308,
  "ㅃ": 4309,
  "ㅅ": 4310,
  "ㅆ": 4311,
  "ㅇ": 4312,
  "ㅈ": 4313,
  "ㅉ": 4314,
  "ㅊ": 4315,
  "ㅋ": 4316,
  "ㅌ": 4317,
  "ㅍ": 4318,
  "ㅎ": 4319,
  "ㅓ": 4320,
  "ㅠ": 4321,
  "ㅡ": 4322,
  "ㅣ": 4323,
  "ㅤ": 4324,
  "ㅯ": 4325,
  "ㆀ": 4326,
  "ㆃ": 4327,
  "ㇻ": 4328,
  "㈠": 4329,
  "㉔": 4330,
  "㉥": 4331,
  "㊂": 4332,
  "㊎": 4333,
  "㊝": 4334,
  "㊱": 4335,
  "㋏": 4336,
  "㎜": 4337,
  "㎝": 4338,
  "㎞": 4339,
  "㎡": 4340,
  "㎢": 4341,
  "㎦": 4342,
  "㘹": 4343,
  "㠄": 4344,
  "㤀": 4345,
  "㤭": 4346,
  "㤮": 4347,
  "㤯": 4348,
  "㤱": 4349,
  "㤴": 4350,
  "㥁": 4351,
  "㥇": 4352,
  "㥍": 4353,
  "㥎": 4354,
  "㥏": 4355,
  "㥑": 4356,
  "㥒": 4357,
  "㥓": 4358,
  "㥚": 4359,
  "㥥": 4360,
  "㥦": 4361,
  "㥩": 4362,
  "㥴": 4363,
  "㩰": 4364,
  "㭌": 4365,
  "㭡": 4366,
  "㭥": 4367,
  "㭧": 4368,
  "㭭": 4369,
  "㭮": 4370,
  "㭲": 4371,
  "㭴": 4372,
  "㰈": 4373,
  "㳺": 4374,
  "㳿": 4375,
  "㸆": 4376,
  "㸘": 4377,
  "㹜": 4378,
  "㹴": 4379,
  "㾻": 4380,
  "㿅": 4381,
  "㿎": 4382,
  "㿐": 4383,
  "㿭": 4384,
  "䀁": 4385,
  "䀋": 4386,
  "䄯": 4387,
  "䅍": 4388,
  "䅨": 4389,
  "䅳": 4390,
  "䅴": 4391,
  "䇆": 4392,
  "䈯": 4393,
  "䉧": 4394,
  "䌄": 4395,
  "䌯": 4396,
  "䍌": 4397,
  "䍴": 4398,
  "䐸": 4399,
  "䐾": 4400,
  "䑁": 4401,
  "䑈": 4402,
  "䑖": 4403,
  "䑯": 4404,
  "䔀": 4405,
  "䕏": 4406,
  "䕐": 4407,
  "䕒": 4408,
  "䕕": 4409,
  "䕤": 4410,
  "䕥": 4411,
  "䕴": 4412,
  "䘯": 4413,
  "䘴": 4414,
  "䙟": 4415,
  "䙲": 4416,
  "䜠": 4417,
  "䝁": 4418,
  "䝎": 4419,
  "䠯": 4420,
  "䤁": 4421,
  "䤨": 4422,
  "䤯": 4423,
  "䤻": 4424,
  "䥁": 4425,
  "䥂": 4426,
  "䥄": 4427,
  "䥉": 4428,
  "䥍": 4429,
  "䥒": 4430,
  "䥔": 4431,
  "䥤": 4432,
  "䥥": 4433,
  "䥴": 4434,
  "䨠": 4435,
  "䬬": 4436,
  "䯔": 4437,
  "䰎": 4438,
  "䰑": 4439,
  "䰒": 4440,
  "䰔": 4441,
  "䰕": 4442,
  "䰨": 4443,
  "䰩": 4444,
  "䰻": 4445,
  "䱒": 4446,
  "䱕": 4447,
  "䱟": 4448,
  "䱤": 4449,
  "䱯": 4450,
  "䱳": 4451,
  "䱴": 4452,
  "䳥": 4453,
  "䳿": 4454,
  "䴏": 4455,
  "䴑": 4456,
  "䴔": 4457,
  "䴥": 4458,
  "䵉": 4459,
  "䵡": 4460,
  "䵴": 4461,
  "䷆": 4462,
  "䷾": 4463,
  "一": 4464,
  "丁": 4465,
  "七": 4466,
  "丅": 4467,
  "万": 4468,
  "丈": 4469,
  "三": 4470,
  "上": 4471,
  "下": 4472,
  "不": 4473,
  "与": 4474,
  "丑": 4475,
  "专": 4476,
  "且": 4477,
  "世": 4478,
  "丘": 4479,
  "丙": 4480,
  "业": 4481,
  "丛": 4482,
  "东": 4483,
  "丝": 4484,
  "両": 4485,
  "丢": 4486,
  "两": 4487,
  "严": 4488,
  "並": 4489,
  "丧": 4490,
  "丨": 4491,
  "个": 4492,
  "丫": 4493,
  "中": 4494,
  "丰": 4495,
  "串": 4496,
  "临": 4497,
  "丶": 4498,
  "丸": 4499,
  "丹": 4500,
  "为": 4501,
  "主": 4502,
  "丽": 4503,
  "举": 4504,
  "丿": 4505,
  "乂": 4506,
  "乃": 4507,
  "久": 4508,
  "乇": 4509,
  "么": 4510,
  "义": 4511,
  "之": 4512,
  "乌": 4513,
  "乎": 4514,
  "乐": 4515,
  "乗": 4516,
  "乘": 4517,
  "乙": 4518,
  "九": 4519,
  "也": 4520,
  "习": 4521,
  "乡": 4522,
  "乥": 4523,
  "书": 4524,
  "买": 4525,
  "乱": 4526,
  "乳": 4527,
  "乾": 4528,
  "亀": 4529,
  "亂": 4530,
  "亅": 4531,
  "了": 4532,
  "予": 4533,
  "争": 4534,
  "事": 4535,
  "二": 4536,
  "于": 4537,
  "云": 4538,
  "互": 4539,
  "五": 4540,
  "井": 4541,
  "亚": 4542,
  "些": 4543,
  "亜": 4544,
  "亞": 4545,
  "亡": 4546,
  "交": 4547,
  "亥": 4548,
  "亦": 4549,
  "产": 4550,
  "亨": 4551,
  "亩": 4552,
  "享": 4553,
  "京": 4554,
  "亮": 4555,
  "亲": 4556,
  "亳": 4557,
  "亶": 4558,
  "人": 4559,
  "亻": 4560,
  "亿": 4561,
  "什": 4562,
  "仁": 4563,
  "仄": 4564,
  "仅": 4565,
  "仆": 4566,
  "仇": 4567,
  "今": 4568,
  "介": 4569,
  "仍": 4570,
  "从": 4571,
  "仏": 4572,
  "仑": 4573,
  "仔": 4574,
  "仕": 4575,
  "他": 4576,
  "付": 4577,
  "仙": 4578,
  "仝": 4579,
  "代": 4580,
  "令": 4581,
  "以": 4582,
  "仨": 4583,
  "仪": 4584,
  "仫": 4585,
  "们": 4586,
  "仮": 4587,
  "仲": 4588,
  "件": 4589,
  "价": 4590,
  "任": 4591,
  "份": 4592,
  "仿": 4593,
  "企": 4594,
  "伊": 4595,
  "伍": 4596,
  "伎": 4597,
  "伏": 4598,
  "伐": 4599,
  "休": 4600,
  "众": 4601,
  "优": 4602,
  "伙": 4603,
  "会": 4604,
  "伛": 4605,
  "伝": 4606,
  "伟": 4607,
  "传": 4608,
  "伤": 4609,
  "伦": 4610,
  "伪": 4611,
  "伯": 4612,
  "估": 4613,
  "伴": 4614,
  "伸": 4615,
  "伺": 4616,
  "似": 4617,
  "但": 4618,
  "佉": 4619,
  "佌": 4620,
  "位": 4621,
  "低": 4622,
  "住": 4623,
  "佐": 4624,
  "佑": 4625,
  "体": 4626,
  "何": 4627,
  "余": 4628,
  "佚": 4629,
  "佛": 4630,
  "作": 4631,
  "佟": 4632,
  "你": 4633,
  "佩": 4634,
  "佬": 4635,
  "佳": 4636,
  "併": 4637,
  "佶": 4638,
  "佸": 4639,
  "使": 4640,
  "侃": 4641,
  "來": 4642,
  "例": 4643,
  "侍": 4644,
  "供": 4645,
  "依": 4646,
  "侠": 4647,
  "価": 4648,
  "侣": 4649,
  "侧": 4650,
  "侨": 4651,
  "侮": 4652,
  "侯": 4653,
  "侵": 4654,
  "侶": 4655,
  "便": 4656,
  "係": 4657,
  "促": 4658,
  "俄": 4659,
  "俊": 4660,
  "俑": 4661,
  "俗": 4662,
  "俘": 4663,
  "俚": 4664,
  "保": 4665,
  "俞": 4666,
  "信": 4667,
  "俩": 4668,
  "修": 4669,
  "俯": 4670,
  "俱": 4671,
  "俳": 4672,
  "俺": 4673,
  "倉": 4674,
  "個": 4675,
  "倍": 4676,
  "們": 4677,
  "倒": 4678,
  "候": 4679,
  "倜": 4680,
  "借": 4681,
  "値": 4682,
  "倦": 4683,
  "倩": 4684,
  "倫": 4685,
  "倭": 4686,
  "倮": 4687,
  "倯": 4688,
  "倶": 4689,
  "值": 4690,
  "倾": 4691,
  "偃": 4692,
  "假": 4693,
  "偉": 4694,
  "偋": 4695,
  "偏": 4696,
  "偓": 4697,
  "偕": 4698,
  "做": 4699,
  "停": 4700,
  "偟": 4701,
  "健": 4702,
  "偪": 4703,
  "側": 4704,
  "偵": 4705,
  "偶": 4706,
  "偷": 4707,
  "偽": 4708,
  "傍": 4709,
  "傑": 4710,
  "傘": 4711,
  "備": 4712,
  "傣": 4713,
  "储": 4714,
  "催": 4715,
  "傲": 4716,
  "傳": 4717,
  "傷": 4718,
  "傻": 4719,
  "傾": 4720,
  "僅": 4721,
  "働": 4722,
  "像": 4723,
  "僕": 4724,
  "僚": 4725,
  "僧": 4726,
  "僮": 4727,
  "價": 4728,
  "儀": 4729,
  "儍": 4730,
  "儒": 4731,
  "償": 4732,
  "優": 4733,
  "儲": 4734,
  "儷": 4735,
  "儿": 4736,
  "兀": 4737,
  "允": 4738,
  "元": 4739,
  "兄": 4740,
  "充": 4741,
  "兆": 4742,
  "先": 4743,
  "光": 4744,
  "克": 4745,
  "免": 4746,
  "兎": 4747,
  "児": 4748,
  "兒": 4749,
  "兔": 4750,
  "兗": 4751,
  "党": 4752,
  "兜": 4753,
  "入": 4754,
  "內": 4755,
  "全": 4756,
  "兩": 4757,
  "八": 4758,
  "公": 4759,
  "六": 4760,
  "兰": 4761,
  "共": 4762,
  "关": 4763,
  "兴": 4764,
  "兵": 4765,
  "其": 4766,
  "具": 4767,
  "典": 4768,
  "兹": 4769,
  "养": 4770,
  "兼": 4771,
  "兽": 4772,
  "冀": 4773,
  "内": 4774,
  "円": 4775,
  "冊": 4776,
  "册": 4777,
  "再": 4778,
  "冒": 4779,
  "写": 4780,
  "军": 4781,
  "农": 4782,
  "冠": 4783,
  "冢": 4784,
  "冤": 4785,
  "冥": 4786,
  "冨": 4787,
  "冪": 4788,
  "冬": 4789,
  "冯": 4790,
  "冰": 4791,
  "冲": 4792,
  "决": 4793,
  "况": 4794,
  "冷": 4795,
  "冻": 4796,
  "净": 4797,
  "凄": 4798,
  "准": 4799,
  "凉": 4800,
  "凌": 4801,
  "减": 4802,
  "凑": 4803,
  "凛": 4804,
  "凝": 4805,
  "几": 4806,
  "凡": 4807,
  "凤": 4808,
  "処": 4809,
  "凧": 4810,
  "凯": 4811,
  "凰": 4812,
  "凱": 4813,
  "凶": 4814,
  "出": 4815,
  "击": 4816,
  "函": 4817,
  "刀": 4818,
  "刂": 4819,
  "刃": 4820,
  "分": 4821,
  "切": 4822,
  "刈": 4823,
  "刊": 4824,
  "刍": 4825,
  "刎": 4826,
  "刑": 4827,
  "划": 4828,
  "刖": 4829,
  "列": 4830,
  "刘": 4831,
  "则": 4832,
  "刚": 4833,
  "创": 4834,
  "初": 4835,
  "删": 4836,
  "判": 4837,
  "別": 4838,
  "利": 4839,
  "刪": 4840,
  "别": 4841,
  "刯": 4842,
  "到": 4843,
  "制": 4844,
  "刷": 4845,
  "券": 4846,
  "刹": 4847,
  "刺": 4848,
  "刻": 4849,
  "剂": 4850,
  "則": 4851,
  "前": 4852,
  "剏": 4853,
  "剐": 4854,
  "剑": 4855,
  "剔": 4856,
  "剕": 4857,
  "剛": 4858,
  "剟": 4859,
  "剣": 4860,
  "剤": 4861,
  "剥": 4862,
  "剧": 4863,
  "剩": 4864,
  "剪": 4865,
  "副": 4866,
  "割": 4867,
  "創": 4868,
  "劃": 4869,
  "劇": 4870,
  "劈": 4871,
  "劉": 4872,
  "劍": 4873,
  "力": 4874,
  "办": 4875,
  "功": 4876,
  "加": 4877,
  "务": 4878,
  "劣": 4879,
  "动": 4880,
  "助": 4881,
  "努": 4882,
  "励": 4883,
  "劲": 4884,
  "劳": 4885,
  "労": 4886,
  "効": 4887,
  "势": 4888,
  "勁": 4889,
  "勃": 4890,
  "勇": 4891,
  "勉": 4892,
  "勐": 4893,
  "勒": 4894,
  "動": 4895,
  "務": 4896,
  "勝": 4897,
  "勞": 4898,
  "募": 4899,
  "勢": 4900,
  "勤": 4901,
  "勧": 4902,
  "勵": 4903,
  "勺": 4904,
  "勿": 4905,
  "匀": 4906,
  "匂": 4907,
  "包": 4908,
  "匆": 4909,
  "匈": 4910,
  "匏": 4911,
  "化": 4912,
  "北": 4913,
  "匟": 4914,
  "匠": 4915,
  "匯": 4916,
  "匹": 4917,
  "区": 4918,
  "医": 4919,
  "匿": 4920,
  "區": 4921,
  "十": 4922,
  "千": 4923,
  "卅": 4924,
  "升": 4925,
  "午": 4926,
  "半": 4927,
  "卍": 4928,
  "华": 4929,
  "协": 4930,
  "卐": 4931,
  "卑": 4932,
  "卒": 4933,
  "卓": 4934,
  "協": 4935,
  "单": 4936,
  "卖": 4937,
  "南": 4938,
  "単": 4939,
  "博": 4940,
  "卜": 4941,
  "卞": 4942,
  "卟": 4943,
  "占": 4944,
  "卡": 4945,
  "卢": 4946,
  "卤": 4947,
  "卦": 4948,
  "卧": 4949,
  "卫": 4950,
  "卮": 4951,
  "卯": 4952,
  "印": 4953,
  "危": 4954,
  "卲": 4955,
  "即": 4956,
  "却": 4957,
  "卵": 4958,
  "卷": 4959,
  "卸": 4960,
  "卻": 4961,
  "卿": 4962,
  "厂": 4963,
  "厄": 4964,
  "厅": 4965,
  "历": 4966,
  "厉": 4967,
  "压": 4968,
  "厕": 4969,
  "厚": 4970,
  "原": 4971,
  "厢": 4972,
  "厥": 4973,
  "厦": 4974,
  "厨": 4975,
  "厲": 4976,
  "厳": 4977,
  "去": 4978,
  "县": 4979,
  "参": 4980,
  "參": 4981,
  "又": 4982,
  "叉": 4983,
  "及": 4984,
  "友": 4985,
  "双": 4986,
  "反": 4987,
  "収": 4988,
  "发": 4989,
  "取": 4990,
  "受": 4991,
  "变": 4992,
  "叙": 4993,
  "叛": 4994,
  "叠": 4995,
  "叢": 4996,
  "口": 4997,
  "古": 4998,
  "句": 4999,
  "另": 5000,
  "只": 5001,
  "叫": 5002,
  "召": 5003,
  "叮": 5004,
  "可": 5005,
  "台": 5006,
  "史": 5007,
  "右": 5008,
  "叶": 5009,
  "号": 5010,
  "司": 5011,
  "吁": 5012,
  "吃": 5013,
  "各": 5014,
  "合": 5015,
  "吉": 5016,
  "同": 5017,
  "名": 5018,
  "后": 5019,
  "吏": 5020,
  "吐": 5021,
  "向": 5022,
  "吒": 5023,
  "吓": 5024,
  "吔": 5025,
  "吕": 5026,
  "吗": 5027,
  "君": 5028,
  "吞": 5029,
  "吟": 5030,
  "吠": 5031,
  "否": 5032,
  "吧": 5033,
  "含": 5034,
  "听": 5035,
  "启": 5036,
  "吱": 5037,
  "吳": 5038,
  "吴": 5039,
  "吵": 5040,
  "吸": 5041,
  "吹": 5042,
  "吻": 5043,
  "吼": 5044,
  "吾": 5045,
  "呀": 5046,
  "呁": 5047,
  "呂": 5048,
  "呆": 5049,
  "呇": 5050,
  "呈": 5051,
  "呉": 5052,
  "告": 5053,
  "呓": 5054,
  "呗": 5055,
  "员": 5056,
  "呢": 5057,
  "呤": 5058,
  "呥": 5059,
  "周": 5060,
  "呪": 5061,
  "呯": 5062,
  "味": 5063,
  "呴": 5064,
  "呷": 5065,
  "呻": 5066,
  "呼": 5067,
  "命": 5068,
  "咀": 5069,
  "和": 5070,
  "咕": 5071,
  "咖": 5072,
  "咗": 5073,
  "咨": 5074,
  "咪": 5075,
  "咫": 5076,
  "咬": 5077,
  "咯": 5078,
  "咱": 5079,
  "咲": 5080,
  "咸": 5081,
  "哀": 5082,
  "品": 5083,
  "哈": 5084,
  "哉": 5085,
  "响": 5086,
  "哝": 5087,
  "哟": 5088,
  "員": 5089,
  "哥": 5090,
  "哦": 5091,
  "哨": 5092,
  "哪": 5093,
  "哭": 5094,
  "哲": 5095,
  "唄": 5096,
  "唇": 5097,
  "唐": 5098,
  "唔": 5099,
  "唠": 5100,
  "唤": 5101,
  "唧": 5102,
  "售": 5103,
  "唯": 5104,
  "唱": 5105,
  "唷": 5106,
  "商": 5107,
  "啊": 5108,
  "問": 5109,
  "啑": 5110,
  "啓": 5111,
  "啟": 5112,
  "啡": 5113,
  "啤": 5114,
  "啦": 5115,
  "喀": 5116,
  "喁": 5117,
  "喂": 5118,
  "善": 5119,
  "喇": 5120,
  "喊": 5121,
  "喋": 5122,
  "喔": 5123,
  "喘": 5124,
  "喚": 5125,
  "喜": 5126,
  "喝": 5127,
  "喪": 5128,
  "喬": 5129,
  "單": 5130,
  "喰": 5131,
  "営": 5132,
  "喺": 5133,
  "喻": 5134,
  "嗅": 5135,
  "嗎": 5136,
  "嗐": 5137,
  "嗜": 5138,
  "嗨": 5139,
  "嗯": 5140,
  "嘅": 5141,
  "嘆": 5142,
  "嘉": 5143,
  "嘘": 5144,
  "嘛": 5145,
  "嘩": 5146,
  "嘯": 5147,
  "嘱": 5148,
  "嘲": 5149,
  "嘴": 5150,
  "嘹": 5151,
  "嘻": 5152,
  "嘿": 5153,
  "噌": 5154,
  "噢": 5155,
  "器": 5156,
  "噴": 5157,
  "噹": 5158,
  "嚢": 5159,
  "嚣": 5160,
  "嚴": 5161,
  "嚼": 5162,
  "囁": 5163,
  "囂": 5164,
  "囗": 5165,
  "囚": 5166,
  "四": 5167,
  "回": 5168,
  "因": 5169,
  "团": 5170,
  "団": 5171,
  "囪": 5172,
  "园": 5173,
  "困": 5174,
  "囲": 5175,
  "図": 5176,
  "围": 5177,
  "固": 5178,
  "国": 5179,
  "图": 5180,
  "圆": 5181,
  "圈": 5182,
  "國": 5183,
  "圍": 5184,
  "圏": 5185,
  "圑": 5186,
  "園": 5187,
  "圓": 5188,
  "圖": 5189,
  "團": 5190,
  "圙": 5191,
  "土": 5192,
  "圣": 5193,
  "圧": 5194,
  "在": 5195,
  "圭": 5196,
  "地": 5197,
  "圳": 5198,
  "场": 5199,
  "圻": 5200,
  "圾": 5201,
  "址": 5202,
  "坂": 5203,
  "均": 5204,
  "坊": 5205,
  "坎": 5206,
  "坏": 5207,
  "坐": 5208,
  "坑": 5209,
  "块": 5210,
  "坚": 5211,
  "坛": 5212,
  "坝": 5213,
  "坡": 5214,
  "坤": 5215,
  "坦": 5216,
  "坪": 5217,
  "坳": 5218,
  "坴": 5219,
  "坷": 5220,
  "垂": 5221,
  "垃": 5222,
  "型": 5223,
  "垌": 5224,
  "垣": 5225,
  "垮": 5226,
  "埃": 5227,
  "埋": 5228,
  "城": 5229,
  "埔": 5230,
  "域": 5231,
  "埮": 5232,
  "埴": 5233,
  "執": 5234,
  "培": 5235,
  "基": 5236,
  "埼": 5237,
  "堀": 5238,
  "堂": 5239,
  "堅": 5240,
  "堆": 5241,
  "堕": 5242,
  "堡": 5243,
  "堤": 5244,
  "堪": 5245,
  "堯": 5246,
  "堰": 5247,
  "報": 5248,
  "場": 5249,
  "堵": 5250,
  "塁": 5251,
  "塊": 5252,
  "塑": 5253,
  "塔": 5254,
  "塗": 5255,
  "塘": 5256,
  "塚": 5257,
  "塞": 5258,
  "塩": 5259,
  "填": 5260,
  "塵": 5261,
  "塾": 5262,
  "境": 5263,
  "墅": 5264,
  "墉": 5265,
  "墓": 5266,
  "増": 5267,
  "墙": 5268,
  "增": 5269,
  "墟": 5270,
  "墨": 5271,
  "墭": 5272,
  "墮": 5273,
  "壁": 5274,
  "壇": 5275,
  "壊": 5276,
  "壓": 5277,
  "壘": 5278,
  "壞": 5279,
  "壟": 5280,
  "壤": 5281,
  "士": 5282,
  "壬": 5283,
  "壮": 5284,
  "壯": 5285,
  "声": 5286,
  "壱": 5287,
  "売": 5288,
  "壳": 5289,
  "壶": 5290,
  "壹": 5291,
  "处": 5292,
  "备": 5293,
  "変": 5294,
  "复": 5295,
  "夏": 5296,
  "夕": 5297,
  "外": 5298,
  "多": 5299,
  "夜": 5300,
  "够": 5301,
  "夠": 5302,
  "夢": 5303,
  "夥": 5304,
  "大": 5305,
  "夨": 5306,
  "天": 5307,
  "太": 5308,
  "夫": 5309,
  "夬": 5310,
  "夭": 5311,
  "央": 5312,
  "夯": 5313,
  "夰": 5314,
  "失": 5315,
  "夲": 5316,
  "夳": 5317,
  "头": 5318,
  "夵": 5319,
  "夶": 5320,
  "夷": 5321,
  "夸": 5322,
  "夹": 5323,
  "夺": 5324,
  "夻": 5325,
  "夼": 5326,
  "夽": 5327,
  "夾": 5328,
  "夿": 5329,
  "奀": 5330,
  "奁": 5331,
  "奂": 5332,
  "奃": 5333,
  "奄": 5334,
  "奅": 5335,
  "奆": 5336,
  "奇": 5337,
  "奈": 5338,
  "奉": 5339,
  "奊": 5340,
  "奋": 5341,
  "奌": 5342,
  "奍": 5343,
  "奎": 5344,
  "奏": 5345,
  "奐": 5346,
  "契": 5347,
  "奒": 5348,
  "奓": 5349,
  "奔": 5350,
  "奕": 5351,
  "奖": 5352,
  "套": 5353,
  "奘": 5354,
  "奙": 5355,
  "奚": 5356,
  "奛": 5357,
  "奜": 5358,
  "奝": 5359,
  "奞": 5360,
  "奟": 5361,
  "奠": 5362,
  "奡": 5363,
  "奢": 5364,
  "奣": 5365,
  "奤": 5366,
  "奥": 5367,
  "奦": 5368,
  "奧": 5369,
  "奨": 5370,
  "奩": 5371,
  "奪": 5372,
  "奫": 5373,
  "奬": 5374,
  "奭": 5375,
  "奮": 5376,
  "奯": 5377,
  "奰": 5378,
  "奱": 5379,
  "奲": 5380,
  "女": 5381,
  "奴": 5382,
  "奶": 5383,
  "她": 5384,
  "奻": 5385,
  "好": 5386,
  "如": 5387,
  "妃": 5388,
  "妄": 5389,
  "妇": 5390,
  "妈": 5391,
  "妒": 5392,
  "妖": 5393,
  "妙": 5394,
  "妝": 5395,
  "妦": 5396,
  "妨": 5397,
  "妮": 5398,
  "妳": 5399,
  "妹": 5400,
  "妻": 5401,
  "妾": 5402,
  "姆": 5403,
  "姉": 5404,
  "始": 5405,
  "姐": 5406,
  "姑": 5407,
  "姓": 5408,
  "委": 5409,
  "姦": 5410,
  "姫": 5411,
  "姬": 5412,
  "姻": 5413,
  "姿": 5414,
  "威": 5415,
  "娃": 5416,
  "娄": 5417,
  "娅": 5418,
  "娇": 5419,
  "娘": 5420,
  "娛": 5421,
  "娜": 5422,
  "娟": 5423,
  "娥": 5424,
  "娩": 5425,
  "娱": 5426,
  "娴": 5427,
  "娻": 5428,
  "婁": 5429,
  "婆": 5430,
  "婉": 5431,
  "婚": 5432,
  "婦": 5433,
  "婪": 5434,
  "婭": 5435,
  "婴": 5436,
  "婷": 5437,
  "媒": 5438,
  "媛": 5439,
  "媳": 5440,
  "媽": 5441,
  "嫁": 5442,
  "嫂": 5443,
  "嫉": 5444,
  "嫌": 5445,
  "嫩": 5446,
  "嬉": 5447,
  "嬌": 5448,
  "嬨": 5449,
  "嬬": 5450,
  "嬴": 5451,
  "孁": 5452,
  "子": 5453,
  "孔": 5454,
  "字": 5455,
  "存": 5456,
  "孙": 5457,
  "孜": 5458,
  "孝": 5459,
  "孟": 5460,
  "季": 5461,
  "孤": 5462,
  "学": 5463,
  "孩": 5464,
  "孫": 5465,
  "學": 5466,
  "孺": 5467,
  "宀": 5468,
  "宁": 5469,
  "它": 5470,
  "宅": 5471,
  "宇": 5472,
  "守": 5473,
  "安": 5474,
  "宋": 5475,
  "完": 5476,
  "宍": 5477,
  "宏": 5478,
  "宕": 5479,
  "宗": 5480,
  "官": 5481,
  "宙": 5482,
  "定": 5483,
  "宛": 5484,
  "宜": 5485,
  "宝": 5486,
  "实": 5487,
  "実": 5488,
  "宠": 5489,
  "审": 5490,
  "客": 5491,
  "宣": 5492,
  "室": 5493,
  "宪": 5494,
  "宫": 5495,
  "宮": 5496,
  "害": 5497,
  "宴": 5498,
  "宵": 5499,
  "家": 5500,
  "容": 5501,
  "宽": 5502,
  "宾": 5503,
  "宿": 5504,
  "寀": 5505,
  "寂": 5506,
  "寄": 5507,
  "寅": 5508,
  "密": 5509,
  "富": 5510,
  "寒": 5511,
  "寓": 5512,
  "寛": 5513,
  "寝": 5514,
  "察": 5515,
  "實": 5516,
  "寧": 5517,
  "寨": 5518,
  "審": 5519,
  "寬": 5520,
  "寮": 5521,
  "寰": 5522,
  "寶": 5523,
  "寸": 5524,
  "对": 5525,
  "寺": 5526,
  "寻": 5527,
  "导": 5528,
  "対": 5529,
  "寿": 5530,
  "封": 5531,
  "専": 5532,
  "射": 5533,
  "将": 5534,
  "將": 5535,
  "專": 5536,
  "尉": 5537,
  "尊": 5538,
  "尋": 5539,
  "對": 5540,
  "導": 5541,
  "小": 5542,
  "少": 5543,
  "尔": 5544,
  "尖": 5545,
  "尘": 5546,
  "尚": 5547,
  "尝": 5548,
  "尤": 5549,
  "就": 5550,
  "尸": 5551,
  "尺": 5552,
  "尻": 5553,
  "尼": 5554,
  "尽": 5555,
  "尾": 5556,
  "尿": 5557,
  "局": 5558,
  "层": 5559,
  "屃": 5560,
  "屄": 5561,
  "居": 5562,
  "屈": 5563,
  "届": 5564,
  "屋": 5565,
  "屍": 5566,
  "屎": 5567,
  "屏": 5568,
  "屔": 5569,
  "展": 5570,
  "属": 5571,
  "屠": 5572,
  "層": 5573,
  "履": 5574,
  "屬": 5575,
  "山": 5576,
  "岁": 5577,
  "岂": 5578,
  "岐": 5579,
  "岔": 5580,
  "岗": 5581,
  "岚": 5582,
  "岛": 5583,
  "岡": 5584,
  "岩": 5585,
  "岭": 5586,
  "岱": 5587,
  "岳": 5588,
  "岸": 5589,
  "峋": 5590,
  "峠": 5591,
  "峡": 5592,
  "峨": 5593,
  "峪": 5594,
  "峰": 5595,
  "峴": 5596,
  "島": 5597,
  "峻": 5598,
  "峽": 5599,
  "崇": 5600,
  "崎": 5601,
  "崔": 5602,
  "崖": 5603,
  "崙": 5604,
  "崚": 5605,
  "崛": 5606,
  "崩": 5607,
  "崴": 5608,
  "嵋": 5609,
  "嵐": 5610,
  "嵒": 5611,
  "嵩": 5612,
  "嶃": 5613,
  "嶌": 5614,
  "嶙": 5615,
  "嶺": 5616,
  "巌": 5617,
  "巍": 5618,
  "巖": 5619,
  "川": 5620,
  "州": 5621,
  "巡": 5622,
  "巢": 5623,
  "巣": 5624,
  "工": 5625,
  "左": 5626,
  "巧": 5627,
  "巨": 5628,
  "巩": 5629,
  "差": 5630,
  "己": 5631,
  "已": 5632,
  "巳": 5633,
  "巴": 5634,
  "巷": 5635,
  "巻": 5636,
  "巾": 5637,
  "巿": 5638,
  "币": 5639,
  "市": 5640,
  "布": 5641,
  "帅": 5642,
  "帆": 5643,
  "师": 5644,
  "希": 5645,
  "帐": 5646,
  "帕": 5647,
  "帖": 5648,
  "帝": 5649,
  "帥": 5650,
  "带": 5651,
  "師": 5652,
  "席": 5653,
  "帮": 5654,
  "帯": 5655,
  "帰": 5656,
  "帳": 5657,
  "帶": 5658,
  "常": 5659,
  "帽": 5660,
  "幅": 5661,
  "幌": 5662,
  "幕": 5663,
  "幡": 5664,
  "幣": 5665,
  "幫": 5666,
  "干": 5667,
  "平": 5668,
  "年": 5669,
  "并": 5670,
  "幸": 5671,
  "幹": 5672,
  "幻": 5673,
  "幼": 5674,
  "幽": 5675,
  "幾": 5676,
  "广": 5677,
  "庁": 5678,
  "広": 5679,
  "庄": 5680,
  "庆": 5681,
  "庇": 5682,
  "床": 5683,
  "序": 5684,
  "库": 5685,
  "应": 5686,
  "底": 5687,
  "店": 5688,
  "庙": 5689,
  "庚": 5690,
  "府": 5691,
  "庞": 5692,
  "度": 5693,
  "座": 5694,
  "庫": 5695,
  "庭": 5696,
  "庵": 5697,
  "庶": 5698,
  "康": 5699,
  "庸": 5700,
  "廁": 5701,
  "廃": 5702,
  "廈": 5703,
  "廉": 5704,
  "廊": 5705,
  "廓": 5706,
  "廚": 5707,
  "廟": 5708,
  "廠": 5709,
  "廢": 5710,
  "廣": 5711,
  "廳": 5712,
  "延": 5713,
  "廷": 5714,
  "建": 5715,
  "廻": 5716,
  "廿": 5717,
  "开": 5718,
  "弁": 5719,
  "异": 5720,
  "弃": 5721,
  "弄": 5722,
  "弅": 5723,
  "弊": 5724,
  "式": 5725,
  "弓": 5726,
  "引": 5727,
  "弗": 5728,
  "弘": 5729,
  "弛": 5730,
  "弟": 5731,
  "张": 5732,
  "弥": 5733,
  "弦": 5734,
  "弧": 5735,
  "弯": 5736,
  "弱": 5737,
  "張": 5738,
  "強": 5739,
  "弹": 5740,
  "强": 5741,
  "弼": 5742,
  "弾": 5743,
  "彌": 5744,
  "彎": 5745,
  "归": 5746,
  "当": 5747,
  "彔": 5748,
  "录": 5749,
  "彘": 5750,
  "形": 5751,
  "彥": 5752,
  "彦": 5753,
  "彩": 5754,
  "彪": 5755,
  "彫": 5756,
  "彬": 5757,
  "彭": 5758,
  "彰": 5759,
  "影": 5760,
  "役": 5761,
  "彻": 5762,
  "彼": 5763,
  "往": 5764,
  "征": 5765,
  "径": 5766,
  "待": 5767,
  "很": 5768,
  "律": 5769,
  "後": 5770,
  "徐": 5771,
  "徒": 5772,
  "従": 5773,
  "得": 5774,
  "從": 5775,
  "御": 5776,
  "復": 5777,
  "循": 5778,
  "微": 5779,
  "徳": 5780,
  "徴": 5781,
  "徵": 5782,
  "德": 5783,
  "徹": 5784,
  "徽": 5785,
  "心": 5786,
  "忄": 5787,
  "必": 5788,
  "忆": 5789,
  "忌": 5790,
  "忍": 5791,
  "忏": 5792,
  "志": 5793,
  "忘": 5794,
  "忙": 5795,
  "応": 5796,
  "忠": 5797,
  "忧": 5798,
  "快": 5799,
  "念": 5800,
  "忽": 5801,
  "怀": 5802,
  "态": 5803,
  "怂": 5804,
  "怎": 5805,
  "怒": 5806,
  "怕": 5807,
  "怖": 5808,
  "怜": 5809,
  "思": 5810,
  "怡": 5811,
  "急": 5812,
  "性": 5813,
  "怨": 5814,
  "怪": 5815,
  "总": 5816,
  "恃": 5817,
  "恆": 5818,
  "恋": 5819,
  "恐": 5820,
  "恒": 5821,
  "恕": 5822,
  "恢": 5823,
  "恥": 5824,
  "恨": 5825,
  "恩": 5826,
  "恬": 5827,
  "恭": 5828,
  "息": 5829,
  "恰": 5830,
  "恳": 5831,
  "恵": 5832,
  "恶": 5833,
  "恼": 5834,
  "悄": 5835,
  "悅": 5836,
  "悌": 5837,
  "悔": 5838,
  "悚": 5839,
  "悟": 5840,
  "悠": 5841,
  "患": 5842,
  "悦": 5843,
  "您": 5844,
  "悩": 5845,
  "悪": 5846,
  "悬": 5847,
  "悲": 5848,
  "悸": 5849,
  "悼": 5850,
  "情": 5851,
  "惇": 5852,
  "惊": 5853,
  "惑": 5854,
  "惕": 5855,
  "惜": 5856,
  "惟": 5857,
  "惠": 5858,
  "惡": 5859,
  "惣": 5860,
  "惧": 5861,
  "惨": 5862,
  "惫": 5863,
  "惯": 5864,
  "惱": 5865,
  "想": 5866,
  "惴": 5867,
  "惶": 5868,
  "愀": 5869,
  "愈": 5870,
  "愉": 5871,
  "愊": 5872,
  "愌": 5873,
  "愎": 5874,
  "意": 5875,
  "愚": 5876,
  "愛": 5877,
  "感": 5878,
  "愧": 5879,
  "愯": 5880,
  "愿": 5881,
  "慄": 5882,
  "慈": 5883,
  "態": 5884,
  "慌": 5885,
  "慍": 5886,
  "慎": 5887,
  "慒": 5888,
  "慔": 5889,
  "慕": 5890,
  "慖": 5891,
  "慟": 5892,
  "慢": 5893,
  "慣": 5894,
  "慤": 5895,
  "慥": 5896,
  "慦": 5897,
  "慧": 5898,
  "慨": 5899,
  "慩": 5900,
  "慪": 5901,
  "慬": 5902,
  "慭": 5903,
  "慮": 5904,
  "慯": 5905,
  "慰": 5906,
  "慲": 5907,
  "慳": 5908,
  "慴": 5909,
  "慶": 5910,
  "憂": 5911,
  "憎": 5912,
  "憧": 5913,
  "憨": 5914,
  "憩": 5915,
  "憲": 5916,
  "憶": 5917,
  "懂": 5918,
  "應": 5919,
  "懌": 5920,
  "懐": 5921,
  "懶": 5922,
  "懸": 5923,
  "戀": 5924,
  "戈": 5925,
  "戊": 5926,
  "戌": 5927,
  "戎": 5928,
  "戏": 5929,
  "成": 5930,
  "我": 5931,
  "戒": 5932,
  "或": 5933,
  "战": 5934,
  "戛": 5935,
  "戟": 5936,
  "戦": 5937,
  "截": 5938,
  "戯": 5939,
  "戰": 5940,
  "戲": 5941,
  "戳": 5942,
  "戴": 5943,
  "戶": 5944,
  "户": 5945,
  "戸": 5946,
  "戻": 5947,
  "房": 5948,
  "所": 5949,
  "扇": 5950,
  "扉": 5951,
  "手": 5952,
  "扌": 5953,
  "才": 5954,
  "扎": 5955,
  "扏": 5956,
  "打": 5957,
  "払": 5958,
  "托": 5959,
  "扡": 5960,
  "扣": 5961,
  "执": 5962,
  "扩": 5963,
  "扫": 5964,
  "扬": 5965,
  "扭": 5966,
  "扮": 5967,
  "扰": 5968,
  "扱": 5969,
  "扵": 5970,
  "扶": 5971,
  "批": 5972,
  "找": 5973,
  "承": 5974,
  "技": 5975,
  "抄": 5976,
  "把": 5977,
  "抑": 5978,
  "抓": 5979,
  "投": 5980,
  "抖": 5981,
  "抗": 5982,
  "折": 5983,
  "抚": 5984,
  "抛": 5985,
  "抜": 5986,
  "択": 5987,
  "抟": 5988,
  "抢": 5989,
  "护": 5990,
  "报": 5991,
  "抦": 5992,
  "披": 5993,
  "抬": 5994,
  "抯": 5995,
  "抱": 5996,
  "抵": 5997,
  "抹": 5998,
  "押": 5999,
  "抽": 6000,
  "担": 6001,
  "拇": 6002,
  "拉": 6003,
  "拋": 6004,
  "拍": 6005,
  "拏": 6006,
  "拐": 6007,
  "拒": 6008,
  "拓": 6009,
  "拔": 6010,
  "拖": 6011,
  "拘": 6012,
  "招": 6013,
  "拜": 6014,
  "拝": 6015,
  "拟": 6016,
  "拠": 6017,
  "拡": 6018,
  "拥": 6019,
  "拨": 6020,
  "择": 6021,
  "括": 6022,
  "拭": 6023,
  "拳": 6024,
  "拾": 6025,
  "拿": 6026,
  "持": 6027,
  "挂": 6028,
  "指": 6029,
  "按": 6030,
  "挑": 6031,
  "挙": 6032,
  "挚": 6033,
  "挠": 6034,
  "挡": 6035,
  "挣": 6036,
  "挥": 6037,
  "挨": 6038,
  "挪": 6039,
  "挫": 6040,
  "振": 6041,
  "捆": 6042,
  "捉": 6043,
  "捐": 6044,
  "捓": 6045,
  "捕": 6046,
  "捜": 6047,
  "损": 6048,
  "捡": 6049,
  "换": 6050,
  "捥": 6051,
  "捨": 6052,
  "据": 6053,
  "捯": 6054,
  "捲": 6055,
  "捶": 6056,
  "捷": 6057,
  "捸": 6058,
  "捻": 6059,
  "掃": 6060,
  "授": 6061,
  "掉": 6062,
  "掌": 6063,
  "排": 6064,
  "掛": 6065,
  "採": 6066,
  "探": 6067,
  "接": 6068,
  "控": 6069,
  "推": 6070,
  "掩": 6071,
  "措": 6072,
  "掬": 6073,
  "掰": 6074,
  "掱": 6075,
  "掲": 6076,
  "掸": 6077,
  "揃": 6078,
  "揎": 6079,
  "描": 6080,
  "提": 6081,
  "插": 6082,
  "揖": 6083,
  "揚": 6084,
  "換": 6085,
  "握": 6086,
  "揭": 6087,
  "揮": 6088,
  "援": 6089,
  "揺": 6090,
  "揽": 6091,
  "搁": 6092,
  "搅": 6093,
  "搊": 6094,
  "搋": 6095,
  "搑": 6096,
  "搓": 6097,
  "搕": 6098,
  "搖": 6099,
  "搘": 6100,
  "搙": 6101,
  "搜": 6102,
  "搞": 6103,
  "搬": 6104,
  "搭": 6105,
  "搵": 6106,
  "搶": 6107,
  "携": 6108,
  "摂": 6109,
  "摄": 6110,
  "摆": 6111,
  "摇": 6112,
  "摘": 6113,
  "摡": 6114,
  "摤": 6115,
  "摥": 6116,
  "摧": 6117,
  "摩": 6118,
  "摮": 6119,
  "摯": 6120,
  "摵": 6121,
  "摸": 6122,
  "摹": 6123,
  "撃": 6124,
  "撐": 6125,
  "撒": 6126,
  "撓": 6127,
  "撞": 6128,
  "撬": 6129,
  "播": 6130,
  "撮": 6131,
  "撲": 6132,
  "擁": 6133,
  "擇": 6134,
  "擊": 6135,
  "擋": 6136,
  "操": 6137,
  "擎": 6138,
  "擒": 6139,
  "擔": 6140,
  "據": 6141,
  "擬": 6142,
  "擾": 6143,
  "攈": 6144,
  "攘": 6145,
  "攝": 6146,
  "攢": 6147,
  "攬": 6148,
  "支": 6149,
  "收": 6150,
  "改": 6151,
  "攻": 6152,
  "放": 6153,
  "政": 6154,
  "敄": 6155,
  "故": 6156,
  "效": 6157,
  "敌": 6158,
  "敍": 6159,
  "敎": 6160,
  "敏": 6161,
  "救": 6162,
  "敒": 6163,
  "敕": 6164,
  "敖": 6165,
  "敗": 6166,
  "教": 6167,
  "敞": 6168,
  "敢": 6169,
  "散": 6170,
  "敤": 6171,
  "敥": 6172,
  "敦": 6173,
  "敧": 6174,
  "敨": 6175,
  "敪": 6176,
  "敬": 6177,
  "敭": 6178,
  "敮": 6179,
  "数": 6180,
  "敲": 6181,
  "敳": 6182,
  "整": 6183,
  "敵": 6184,
  "敷": 6185,
  "數": 6186,
  "敹": 6187,
  "文": 6188,
  "斉": 6189,
  "斋": 6190,
  "斌": 6191,
  "斎": 6192,
  "斑": 6193,
  "斗": 6194,
  "料": 6195,
  "斛": 6196,
  "斜": 6197,
  "斟": 6198,
  "斡": 6199,
  "斤": 6200,
  "斩": 6201,
  "斫": 6202,
  "斬": 6203,
  "断": 6204,
  "斯": 6205,
  "新": 6206,
  "方": 6207,
  "於": 6208,
  "施": 6209,
  "旁": 6210,
  "旅": 6211,
  "旋": 6212,
  "族": 6213,
  "旗": 6214,
  "无": 6215,
  "既": 6216,
  "日": 6217,
  "旦": 6218,
  "旧": 6219,
  "旨": 6220,
  "早": 6221,
  "旬": 6222,
  "旭": 6223,
  "时": 6224,
  "旺": 6225,
  "昀": 6226,
  "昂": 6227,
  "昆": 6228,
  "昇": 6229,
  "昈": 6230,
  "昉": 6231,
  "昊": 6232,
  "昌": 6233,
  "明": 6234,
  "昏": 6235,
  "易": 6236,
  "昔": 6237,
  "昕": 6238,
  "星": 6239,
  "映": 6240,
  "春": 6241,
  "昧": 6242,
  "昨": 6243,
  "昭": 6244,
  "是": 6245,
  "昴": 6246,
  "昶": 6247,
  "昼": 6248,
  "显": 6249,
  "時": 6250,
  "晉": 6251,
  "晋": 6252,
  "晒": 6253,
  "晓": 6254,
  "晔": 6255,
  "晖": 6256,
  "晚": 6257,
  "晤": 6258,
  "晦": 6259,
  "晨": 6260,
  "晩": 6261,
  "晬": 6262,
  "晭": 6263,
  "普": 6264,
  "景": 6265,
  "晰": 6266,
  "晳": 6267,
  "晴": 6268,
  "晵": 6269,
  "晶": 6270,
  "智": 6271,
  "晾": 6272,
  "暁": 6273,
  "暂": 6274,
  "暇": 6275,
  "暉": 6276,
  "暖": 6277,
  "暗": 6278,
  "暢": 6279,
  "暨": 6280,
  "暫": 6281,
  "暮": 6282,
  "暴": 6283,
  "曆": 6284,
  "曉": 6285,
  "曜": 6286,
  "曲": 6287,
  "更": 6288,
  "書": 6289,
  "曹": 6290,
  "曼": 6291,
  "曽": 6292,
  "曾": 6293,
  "替": 6294,
  "最": 6295,
  "會": 6296,
  "朇": 6297,
  "月": 6298,
  "有": 6299,
  "朋": 6300,
  "朌": 6301,
  "服": 6302,
  "朐": 6303,
  "朑": 6304,
  "朕": 6305,
  "朗": 6306,
  "望": 6307,
  "朝": 6308,
  "期": 6309,
  "木": 6310,
  "未": 6311,
  "末": 6312,
  "本": 6313,
  "札": 6314,
  "朮": 6315,
  "术": 6316,
  "朱": 6317,
  "朴": 6318,
  "朵": 6319,
  "朶": 6320,
  "机": 6321,
  "朽": 6322,
  "杀": 6323,
  "杁": 6324,
  "杂": 6325,
  "权": 6326,
  "杆": 6327,
  "杉": 6328,
  "李": 6329,
  "杏": 6330,
  "材": 6331,
  "村": 6332,
  "杖": 6333,
  "杜": 6334,
  "杞": 6335,
  "束": 6336,
  "杠": 6337,
  "条": 6338,
  "来": 6339,
  "杨": 6340,
  "杭": 6341,
  "杮": 6342,
  "杯": 6343,
  "杰": 6344,
  "東": 6345,
  "杲": 6346,
  "杵": 6347,
  "杺": 6348,
  "杽": 6349,
  "松": 6350,
  "板": 6351,
  "极": 6352,
  "构": 6353,
  "析": 6354,
  "林": 6355,
  "枚": 6356,
  "果": 6357,
  "枝": 6358,
  "枢": 6359,
  "枣": 6360,
  "枪": 6361,
  "枫": 6362,
  "枯": 6363,
  "架": 6364,
  "枸": 6365,
  "柄": 6366,
  "柏": 6367,
  "某": 6368,
  "柑": 6369,
  "染": 6370,
  "柔": 6371,
  "柜": 6372,
  "柠": 6373,
  "查": 6374,
  "柯": 6375,
  "柱": 6376,
  "柳": 6377,
  "柴": 6378,
  "査": 6379,
  "柿": 6380,
  "栀": 6381,
  "栂": 6382,
  "栄": 6383,
  "栅": 6384,
  "标": 6385,
  "栈": 6386,
  "栉": 6387,
  "栌": 6388,
  "栏": 6389,
  "树": 6390,
  "栔": 6391,
  "栖": 6392,
  "栗": 6393,
  "校": 6394,
  "栩": 6395,
  "株": 6396,
  "栮": 6397,
  "样": 6398,
  "核": 6399,
  "根": 6400,
  "格": 6401,
  "栽": 6402,
  "栾": 6403,
  "桂": 6404,
  "桃": 6405,
  "桅": 6406,
  "框": 6407,
  "案": 6408,
  "桌": 6409,
  "桑": 6410,
  "桓": 6411,
  "桔": 6412,
  "桜": 6413,
  "档": 6414,
  "桥": 6415,
  "桧": 6416,
  "桩": 6417,
  "桳": 6418,
  "桴": 6419,
  "桶": 6420,
  "梁": 6421,
  "梅": 6422,
  "梓": 6423,
  "梔": 6424,
  "梗": 6425,
  "條": 6426,
  "梦": 6427,
  "梧": 6428,
  "梨": 6429,
  "梯": 6430,
  "械": 6431,
  "梵": 6432,
  "检": 6433,
  "棄": 6434,
  "棋": 6435,
  "棍": 6436,
  "棒": 6437,
  "棕": 6438,
  "棘": 6439,
  "棚": 6440,
  "棟": 6441,
  "棠": 6442,
  "棣": 6443,
  "森": 6444,
  "棺": 6445,
  "椅": 6446,
  "椋": 6447,
  "椌": 6448,
  "植": 6449,
  "椒": 6450,
  "検": 6451,
  "椟": 6452,
  "椮": 6453,
  "椯": 6454,
  "椴": 6455,
  "椼": 6456,
  "椿": 6457,
  "楆": 6458,
  "楊": 6459,
  "楍": 6460,
  "楓": 6461,
  "楚": 6462,
  "楡": 6463,
  "楢": 6464,
  "楣": 6465,
  "楤": 6466,
  "楦": 6467,
  "楫": 6468,
  "業": 6469,
  "楮": 6470,
  "楯": 6471,
  "楲": 6472,
  "楴": 6473,
  "極": 6474,
  "楼": 6475,
  "楽": 6476,
  "概": 6477,
  "榊": 6478,
  "榛": 6479,
  "榜": 6480,
  "榮": 6481,
  "榴": 6482,
  "構": 6483,
  "槍": 6484,
  "様": 6485,
  "槽": 6486,
  "樂": 6487,
  "樄": 6488,
  "樐": 6489,
  "樒": 6490,
  "樓": 6491,
  "樖": 6492,
  "標": 6493,
  "樛": 6494,
  "樝": 6495,
  "樞": 6496,
  "模": 6497,
  "樣": 6498,
  "権": 6499,
  "横": 6500,
  "樮": 6501,
  "樯": 6502,
  "樱": 6503,
  "樹": 6504,
  "樽": 6505,
  "橋": 6506,
  "橌": 6507,
  "橘": 6508,
  "橙": 6509,
  "機": 6510,
  "橢": 6511,
  "檀": 6512,
  "檯": 6513,
  "櫃": 6514,
  "櫓": 6515,
  "櫻": 6516,
  "欄": 6517,
  "權": 6518,
  "欠": 6519,
  "次": 6520,
  "欢": 6521,
  "欣": 6522,
  "欧": 6523,
  "欬": 6524,
  "欲": 6525,
  "欺": 6526,
  "欽": 6527,
  "款": 6528,
  "歇": 6529,
  "歉": 6530,
  "歌": 6531,
  "歐": 6532,
  "歓": 6533,
  "歡": 6534,
  "止": 6535,
  "正": 6536,
  "此": 6537,
  "步": 6538,
  "武": 6539,
  "歧": 6540,
  "歩": 6541,
  "歬": 6542,
  "歲": 6543,
  "歳": 6544,
  "歴": 6545,
  "歷": 6546,
  "歸": 6547,
  "死": 6548,
  "殆": 6549,
  "殊": 6550,
  "残": 6551,
  "殖": 6552,
  "殯": 6553,
  "殴": 6554,
  "段": 6555,
  "殷": 6556,
  "殺": 6557,
  "殼": 6558,
  "殿": 6559,
  "毁": 6560,
  "毅": 6561,
  "母": 6562,
  "毎": 6563,
  "每": 6564,
  "毒": 6565,
  "毓": 6566,
  "比": 6567,
  "毕": 6568,
  "毘": 6569,
  "毛": 6570,
  "毫": 6571,
  "氄": 6572,
  "氉": 6573,
  "氊": 6574,
  "氍": 6575,
  "氏": 6576,
  "民": 6577,
  "氓": 6578,
  "气": 6579,
  "気": 6580,
  "氛": 6581,
  "氢": 6582,
  "氣": 6583,
  "氯": 6584,
  "水": 6585,
  "氵": 6586,
  "氷": 6587,
  "永": 6588,
  "汁": 6589,
  "求": 6590,
  "汅": 6591,
  "汆": 6592,
  "汇": 6593,
  "汉": 6594,
  "汐": 6595,
  "汗": 6596,
  "汚": 6597,
  "汝": 6598,
  "江": 6599,
  "池": 6600,
  "污": 6601,
  "汢": 6602,
  "汣": 6603,
  "汤": 6604,
  "汥": 6605,
  "汦": 6606,
  "汩": 6607,
  "汪": 6608,
  "汬": 6609,
  "汭": 6610,
  "汯": 6611,
  "汰": 6612,
  "汲": 6613,
  "汴": 6614,
  "汵": 6615,
  "汶": 6616,
  "決": 6617,
  "汽": 6618,
  "汾": 6619,
  "沁": 6620,
  "沂": 6621,
  "沃": 6622,
  "沈": 6623,
  "沉": 6624,
  "沊": 6625,
  "沌": 6626,
  "沐": 6627,
  "沒": 6628,
  "沖": 6629,
  "沙": 6630,
  "沝": 6631,
  "沟": 6632,
  "没": 6633,
  "沢": 6634,
  "沧": 6635,
  "沫": 6636,
  "沱": 6637,
  "河": 6638,
  "油": 6639,
  "治": 6640,
  "沼": 6641,
  "沿": 6642,
  "況": 6643,
  "泄": 6644,
  "泉": 6645,
  "泊": 6646,
  "法": 6647,
  "泛": 6648,
  "泡": 6649,
  "波": 6650,
  "泣": 6651,
  "泥": 6652,
  "注": 6653,
  "泪": 6654,
  "泮": 6655,
  "泰": 6656,
  "泳": 6657,
  "泽": 6658,
  "洁": 6659,
  "洋": 6660,
  "洒": 6661,
  "洗": 6662,
  "洛": 6663,
  "洞": 6664,
  "津": 6665,
  "洩": 6666,
  "洪": 6667,
  "洮": 6668,
  "洱": 6669,
  "洲": 6670,
  "活": 6671,
  "派": 6672,
  "流": 6673,
  "浄": 6674,
  "浅": 6675,
  "浆": 6676,
  "浉": 6677,
  "浊": 6678,
  "测": 6679,
  "济": 6680,
  "浏": 6681,
  "浑": 6682,
  "浓": 6683,
  "浙": 6684,
  "浜": 6685,
  "浡": 6686,
  "浥": 6687,
  "浦": 6688,
  "浩": 6689,
  "浪": 6690,
  "浮": 6691,
  "浯": 6692,
  "浲": 6693,
  "浴": 6694,
  "浵": 6695,
  "海": 6696,
  "涂": 6697,
  "涅": 6698,
  "消": 6699,
  "涉": 6700,
  "涌": 6701,
  "涖": 6702,
  "涙": 6703,
  "涛": 6704,
  "涡": 6705,
  "涤": 6706,
  "润": 6707,
  "涧": 6708,
  "涨": 6709,
  "液": 6710,
  "涵": 6711,
  "涼": 6712,
  "淆": 6713,
  "淇": 6714,
  "淋": 6715,
  "淑": 6716,
  "淘": 6717,
  "淡": 6718,
  "淨": 6719,
  "淬": 6720,
  "淮": 6721,
  "深": 6722,
  "淵": 6723,
  "混": 6724,
  "淹": 6725,
  "添": 6726,
  "清": 6727,
  "渆": 6728,
  "渇": 6729,
  "済": 6730,
  "渉": 6731,
  "渊": 6732,
  "渋": 6733,
  "渐": 6734,
  "渔": 6735,
  "渙": 6736,
  "減": 6737,
  "渡": 6738,
  "渥": 6739,
  "渦": 6740,
  "温": 6741,
  "測": 6742,
  "渭": 6743,
  "渮": 6744,
  "港": 6745,
  "游": 6746,
  "湃": 6747,
  "湅": 6748,
  "湉": 6749,
  "湊": 6750,
  "湖": 6751,
  "湘": 6752,
  "湛": 6753,
  "湟": 6754,
  "湡": 6755,
  "湤": 6756,
  "湥": 6757,
  "湩": 6758,
  "湮": 6759,
  "湯": 6760,
  "湵": 6761,
  "湾": 6762,
  "湿": 6763,
  "満": 6764,
  "源": 6765,
  "準": 6766,
  "溜": 6767,
  "溝": 6768,
  "溟": 6769,
  "溢": 6770,
  "溥": 6771,
  "溪": 6772,
  "溫": 6773,
  "溯": 6774,
  "溿": 6775,
  "滅": 6776,
  "滋": 6777,
  "滑": 6778,
  "滕": 6779,
  "滚": 6780,
  "滝": 6781,
  "滞": 6782,
  "满": 6783,
  "滤": 6784,
  "滨": 6785,
  "滩": 6786,
  "滯": 6787,
  "滴": 6788,
  "滾": 6789,
  "滿": 6790,
  "漁": 6791,
  "漂": 6792,
  "漆": 6793,
  "漊": 6794,
  "漏": 6795,
  "演": 6796,
  "漠": 6797,
  "漢": 6798,
  "漩": 6799,
  "漫": 6800,
  "漬": 6801,
  "漮": 6802,
  "漱": 6803,
  "漳": 6804,
  "潃": 6805,
  "潆": 6806,
  "潍": 6807,
  "潓": 6808,
  "潔": 6809,
  "潘": 6810,
  "潜": 6811,
  "潟": 6812,
  "潣": 6813,
  "潤": 6814,
  "潦": 6815,
  "潩": 6816,
  "潬": 6817,
  "潭": 6818,
  "潮": 6819,
  "潯": 6820,
  "潰": 6821,
  "潴": 6822,
  "潼": 6823,
  "澄": 6824,
  "澎": 6825,
  "澗": 6826,
  "澜": 6827,
  "澤": 6828,
  "澳": 6829,
  "激": 6830,
  "濁": 6831,
  "濃": 6832,
  "濕": 6833,
  "濟": 6834,
  "濤": 6835,
  "濯": 6836,
  "濾": 6837,
  "瀌": 6838,
  "瀍": 6839,
  "瀏": 6840,
  "瀑": 6841,
  "瀞": 6842,
  "瀟": 6843,
  "瀬": 6844,
  "灁": 6845,
  "灌": 6846,
  "灑": 6847,
  "灕": 6848,
  "灘": 6849,
  "灡": 6850,
  "灣": 6851,
  "灥": 6852,
  "火": 6853,
  "灬": 6854,
  "灭": 6855,
  "灮": 6856,
  "灯": 6857,
  "灰": 6858,
  "灱": 6859,
  "灲": 6860,
  "灴": 6861,
  "灵": 6862,
  "灶": 6863,
  "灸": 6864,
  "灼": 6865,
  "災": 6866,
  "炉": 6867,
  "炊": 6868,
  "炎": 6869,
  "炒": 6870,
  "炩": 6871,
  "炬": 6872,
  "炭": 6873,
  "炮": 6874,
  "炯": 6875,
  "炸": 6876,
  "点": 6877,
  "為": 6878,
  "炼": 6879,
  "炽": 6880,
  "烂": 6881,
  "烈": 6882,
  "烏": 6883,
  "烛": 6884,
  "烟": 6885,
  "烤": 6886,
  "烦": 6887,
  "烧": 6888,
  "烫": 6889,
  "热": 6890,
  "烯": 6891,
  "焉": 6892,
  "焔": 6893,
  "焘": 6894,
  "焙": 6895,
  "焚": 6896,
  "無": 6897,
  "焰": 6898,
  "然": 6899,
  "焼": 6900,
  "煌": 6901,
  "煎": 6902,
  "煓": 6903,
  "煙": 6904,
  "煥": 6905,
  "照": 6906,
  "煩": 6907,
  "煬": 6908,
  "煮": 6909,
  "熈": 6910,
  "熊": 6911,
  "熔": 6912,
  "熙": 6913,
  "熟": 6914,
  "熬": 6915,
  "熱": 6916,
  "熾": 6917,
  "燃": 6918,
  "燈": 6919,
  "燕": 6920,
  "營": 6921,
  "燥": 6922,
  "爆": 6923,
  "爠": 6924,
  "爪": 6925,
  "爬": 6926,
  "爭": 6927,
  "爱": 6928,
  "爵": 6929,
  "父": 6930,
  "爷": 6931,
  "爺": 6932,
  "爻": 6933,
  "爾": 6934,
  "牆": 6935,
  "片": 6936,
  "版": 6937,
  "牌": 6938,
  "牐": 6939,
  "牙": 6940,
  "牛": 6941,
  "牡": 6942,
  "牢": 6943,
  "牣": 6944,
  "牥": 6945,
  "牧": 6946,
  "牨": 6947,
  "物": 6948,
  "牯": 6949,
  "牰": 6950,
  "牲": 6951,
  "牴": 6952,
  "牵": 6953,
  "牸": 6954,
  "特": 6955,
  "牽": 6956,
  "犀": 6957,
  "犍": 6958,
  "犠": 6959,
  "犬": 6960,
  "犭": 6961,
  "犯": 6962,
  "犰": 6963,
  "犴": 6964,
  "状": 6965,
  "犹": 6966,
  "狀": 6967,
  "狂": 6968,
  "狄": 6969,
  "狐": 6970,
  "狗": 6971,
  "狙": 6972,
  "狠": 6973,
  "狡": 6974,
  "狩": 6975,
  "独": 6976,
  "狭": 6977,
  "狮": 6978,
  "狱": 6979,
  "狳": 6980,
  "狴": 6981,
  "狸": 6982,
  "狹": 6983,
  "狻": 6984,
  "狼": 6985,
  "猊": 6986,
  "猎": 6987,
  "猛": 6988,
  "猜": 6989,
  "猩": 6990,
  "猪": 6991,
  "猫": 6992,
  "献": 6993,
  "猴": 6994,
  "猾": 6995,
  "猿": 6996,
  "獄": 6997,
  "獅": 6998,
  "獌": 6999,
  "獎": 7000,
  "獒": 7001,
  "獡": 7002,
  "獣": 7003,
  "獥": 7004,
  "獨": 7005,
  "獭": 7006,
  "獮": 7007,
  "獯": 7008,
  "獲": 7009,
  "獴": 7010,
  "獵": 7011,
  "獹": 7012,
  "獻": 7013,
  "玄": 7014,
  "率": 7015,
  "玉": 7016,
  "王": 7017,
  "玖": 7018,
  "玛": 7019,
  "玩": 7020,
  "玫": 7021,
  "环": 7022,
  "现": 7023,
  "玲": 7024,
  "玷": 7025,
  "玻": 7026,
  "珈": 7027,
  "珊": 7028,
  "珍": 7029,
  "珠": 7030,
  "班": 7031,
  "現": 7032,
  "球": 7033,
  "理": 7034,
  "琉": 7035,
  "琧": 7036,
  "琪": 7037,
  "琲": 7038,
  "琳": 7039,
  "琴": 7040,
  "琵": 7041,
  "琶": 7042,
  "琹": 7043,
  "瑓": 7044,
  "瑞": 7045,
  "瑡": 7046,
  "瑣": 7047,
  "瑤": 7048,
  "瑥": 7049,
  "瑧": 7050,
  "瑨": 7051,
  "瑩": 7052,
  "瑪": 7053,
  "瑮": 7054,
  "瑯": 7055,
  "瑰": 7056,
  "瑲": 7057,
  "瑳": 7058,
  "瑴": 7059,
  "瑵": 7060,
  "瑶": 7061,
  "瑷": 7062,
  "瑸": 7063,
  "瑾": 7064,
  "璃": 7065,
  "璋": 7066,
  "璞": 7067,
  "璧": 7068,
  "環": 7069,
  "瓊": 7070,
  "瓜": 7071,
  "瓢": 7072,
  "瓦": 7073,
  "瓮": 7074,
  "瓶": 7075,
  "瓷": 7076,
  "甌": 7077,
  "甘": 7078,
  "甚": 7079,
  "甜": 7080,
  "生": 7081,
  "甠": 7082,
  "甡": 7083,
  "產": 7084,
  "産": 7085,
  "甤": 7086,
  "甥": 7087,
  "甦": 7088,
  "甧": 7089,
  "用": 7090,
  "甫": 7091,
  "甯": 7092,
  "田": 7093,
  "由": 7094,
  "甲": 7095,
  "申": 7096,
  "电": 7097,
  "男": 7098,
  "甸": 7099,
  "町": 7100,
  "画": 7101,
  "甼": 7102,
  "畁": 7103,
  "畂": 7104,
  "畅": 7105,
  "界": 7106,
  "畑": 7107,
  "畒": 7108,
  "畔": 7109,
  "留": 7110,
  "畜": 7111,
  "畝": 7112,
  "畡": 7113,
  "畣": 7114,
  "略": 7115,
  "番": 7116,
  "畫": 7117,
  "畬": 7118,
  "畮": 7119,
  "畯": 7120,
  "異": 7121,
  "畲": 7122,
  "畳": 7123,
  "畴": 7124,
  "當": 7125,
  "畿": 7126,
  "疆": 7127,
  "疎": 7128,
  "疑": 7129,
  "疗": 7130,
  "疫": 7131,
  "疯": 7132,
  "疲": 7133,
  "疾": 7134,
  "病": 7135,
  "症": 7136,
  "痓": 7137,
  "痕": 7138,
  "痘": 7139,
  "痛": 7140,
  "痩": 7141,
  "痿": 7142,
  "瘋": 7143,
  "瘦": 7144,
  "瘸": 7145,
  "瘾": 7146,
  "療": 7147,
  "癌": 7148,
  "癒": 7149,
  "癞": 7150,
  "癡": 7151,
  "癮": 7152,
  "癲": 7153,
  "癸": 7154,
  "発": 7155,
  "登": 7156,
  "發": 7157,
  "白": 7158,
  "百": 7159,
  "的": 7160,
  "皆": 7161,
  "皇": 7162,
  "皋": 7163,
  "皐": 7164,
  "皮": 7165,
  "皯": 7166,
  "皰": 7167,
  "皱": 7168,
  "皲": 7169,
  "皳": 7170,
  "皴": 7171,
  "皵": 7172,
  "皶": 7173,
  "皷": 7174,
  "皸": 7175,
  "皹": 7176,
  "皺": 7177,
  "皻": 7178,
  "皼": 7179,
  "皽": 7180,
  "皾": 7181,
  "盆": 7182,
  "盈": 7183,
  "益": 7184,
  "盏": 7185,
  "盐": 7186,
  "监": 7187,
  "盖": 7188,
  "盗": 7189,
  "盘": 7190,
  "盛": 7191,
  "盟": 7192,
  "盡": 7193,
  "監": 7194,
  "盤": 7195,
  "目": 7196,
  "盯": 7197,
  "盲": 7198,
  "直": 7199,
  "相": 7200,
  "盼": 7201,
  "盾": 7202,
  "省": 7203,
  "眉": 7204,
  "看": 7205,
  "県": 7206,
  "眞": 7207,
  "真": 7208,
  "眠": 7209,
  "眦": 7210,
  "眩": 7211,
  "眯": 7212,
  "眸": 7213,
  "眼": 7214,
  "眾": 7215,
  "着": 7216,
  "睚": 7217,
  "睛": 7218,
  "睡": 7219,
  "督": 7220,
  "睦": 7221,
  "睨": 7222,
  "睫": 7223,
  "睯": 7224,
  "睷": 7225,
  "睹": 7226,
  "睿": 7227,
  "瞒": 7228,
  "瞩": 7229,
  "瞬": 7230,
  "瞰": 7231,
  "矛": 7232,
  "矢": 7233,
  "矣": 7234,
  "知": 7235,
  "矩": 7236,
  "短": 7237,
  "矮": 7238,
  "石": 7239,
  "矿": 7240,
  "码": 7241,
  "砂": 7242,
  "砉": 7243,
  "砌": 7244,
  "研": 7245,
  "砕": 7246,
  "砖": 7247,
  "砚": 7248,
  "砦": 7249,
  "砭": 7250,
  "砲": 7251,
  "破": 7252,
  "砸": 7253,
  "础": 7254,
  "硅": 7255,
  "硏": 7256,
  "硕": 7257,
  "硚": 7258,
  "硥": 7259,
  "硫": 7260,
  "硬": 7261,
  "确": 7262,
  "碁": 7263,
  "碍": 7264,
  "碎": 7265,
  "碑": 7266,
  "碗": 7267,
  "碟": 7268,
  "碧": 7269,
  "碰": 7270,
  "碳": 7271,
  "確": 7272,
  "碼": 7273,
  "碾": 7274,
  "磊": 7275,
  "磐": 7276,
  "磨": 7277,
  "磯": 7278,
  "礙": 7279,
  "示": 7280,
  "礻": 7281,
  "礼": 7282,
  "社": 7283,
  "祀": 7284,
  "祁": 7285,
  "祇": 7286,
  "祈": 7287,
  "祉": 7288,
  "祐": 7289,
  "祖": 7290,
  "祚": 7291,
  "祛": 7292,
  "祝": 7293,
  "神": 7294,
  "祡": 7295,
  "祥": 7296,
  "票": 7297,
  "祭": 7298,
  "祰": 7299,
  "祷": 7300,
  "禁": 7301,
  "禄": 7302,
  "禅": 7303,
  "福": 7304,
  "禧": 7305,
  "禮": 7306,
  "禰": 7307,
  "禹": 7308,
  "禺": 7309,
  "离": 7310,
  "禽": 7311,
  "禾": 7312,
  "禿": 7313,
  "秀": 7314,
  "私": 7315,
  "秋": 7316,
  "种": 7317,
  "科": 7318,
  "秒": 7319,
  "秘": 7320,
  "租": 7321,
  "秦": 7322,
  "积": 7323,
  "称": 7324,
  "移": 7325,
  "稀": 7326,
  "稅": 7327,
  "程": 7328,
  "稍": 7329,
  "税": 7330,
  "稔": 7331,
  "稠": 7332,
  "種": 7333,
  "稱": 7334,
  "稳": 7335,
  "稽": 7336,
  "稿": 7337,
  "穀": 7338,
  "穂": 7339,
  "穆": 7340,
  "積": 7341,
  "穎": 7342,
  "穏": 7343,
  "穗": 7344,
  "穣": 7345,
  "穥": 7346,
  "穴": 7347,
  "究": 7348,
  "穷": 7349,
  "空": 7350,
  "穿": 7351,
  "突": 7352,
  "窃": 7353,
  "窄": 7354,
  "窓": 7355,
  "窖": 7356,
  "窗": 7357,
  "窜": 7358,
  "窝": 7359,
  "窟": 7360,
  "窥": 7361,
  "窯": 7362,
  "竇": 7363,
  "立": 7364,
  "竒": 7365,
  "站": 7366,
  "竜": 7367,
  "竟": 7368,
  "章": 7369,
  "童": 7370,
  "竭": 7371,
  "端": 7372,
  "競": 7373,
  "竹": 7374,
  "笑": 7375,
  "笔": 7376,
  "笛": 7377,
  "笠": 7378,
  "符": 7379,
  "第": 7380,
  "笼": 7381,
  "筆": 7382,
  "等": 7383,
  "筋": 7384,
  "筑": 7385,
  "筒": 7386,
  "答": 7387,
  "策": 7388,
  "筹": 7389,
  "签": 7390,
  "简": 7391,
  "箇": 7392,
  "箍": 7393,
  "箕": 7394,
  "算": 7395,
  "管": 7396,
  "箪": 7397,
  "箭": 7398,
  "箱": 7399,
  "節": 7400,
  "篁": 7401,
  "範": 7402,
  "篇": 7403,
  "築": 7404,
  "篠": 7405,
  "篡": 7406,
  "篤": 7407,
  "簡": 7408,
  "簽": 7409,
  "簾": 7410,
  "簿": 7411,
  "籍": 7412,
  "籐": 7413,
  "籙": 7414,
  "籠": 7415,
  "籤": 7416,
  "米": 7417,
  "类": 7418,
  "籾": 7419,
  "粉": 7420,
  "粋": 7421,
  "粒": 7422,
  "粗": 7423,
  "粘": 7424,
  "粟": 7425,
  "粥": 7426,
  "粧": 7427,
  "粪": 7428,
  "粮": 7429,
  "粱": 7430,
  "粵": 7431,
  "粹": 7432,
  "精": 7433,
  "粿": 7434,
  "糊": 7435,
  "糕": 7436,
  "糖": 7437,
  "糞": 7438,
  "糟": 7439,
  "糧": 7440,
  "糸": 7441,
  "糺": 7442,
  "系": 7443,
  "糿": 7444,
  "紀": 7445,
  "約": 7446,
  "紅": 7447,
  "紋": 7448,
  "納": 7449,
  "純": 7450,
  "紗": 7451,
  "紙": 7452,
  "級": 7453,
  "素": 7454,
  "索": 7455,
  "紧": 7456,
  "紫": 7457,
  "累": 7458,
  "細": 7459,
  "紹": 7460,
  "紺": 7461,
  "終": 7462,
  "絃": 7463,
  "組": 7464,
  "経": 7465,
  "結": 7466,
  "絕": 7467,
  "絡": 7468,
  "給": 7469,
  "絨": 7470,
  "統": 7471,
  "絲": 7472,
  "絵": 7473,
  "絶": 7474,
  "絹": 7475,
  "綁": 7476,
  "經": 7477,
  "継": 7478,
  "続": 7479,
  "綠": 7480,
  "綢": 7481,
  "維": 7482,
  "綱": 7483,
  "網": 7484,
  "綸": 7485,
  "綺": 7486,
  "綿": 7487,
  "緊": 7488,
  "緋": 7489,
  "総": 7490,
  "緑": 7491,
  "緒": 7492,
  "線": 7493,
  "締": 7494,
  "緣": 7495,
  "編": 7496,
  "練": 7497,
  "緻": 7498,
  "縁": 7499,
  "縄": 7500,
  "縛": 7501,
  "縞": 7502,
  "縣": 7503,
  "縦": 7504,
  "縫": 7505,
  "總": 7506,
  "績": 7507,
  "繁": 7508,
  "繊": 7509,
  "繋": 7510,
  "織": 7511,
  "繩": 7512,
  "繪": 7513,
  "繫": 7514,
  "繰": 7515,
  "繼": 7516,
  "纂": 7517,
  "續": 7518,
  "纠": 7519,
  "红": 7520,
  "纤": 7521,
  "约": 7522,
  "级": 7523,
  "纪": 7524,
  "纫": 7525,
  "纯": 7526,
  "纲": 7527,
  "纳": 7528,
  "纵": 7529,
  "纷": 7530,
  "纸": 7531,
  "纹": 7532,
  "纺": 7533,
  "纽": 7534,
  "线": 7535,
  "练": 7536,
  "组": 7537,
  "绅": 7538,
  "细": 7539,
  "织": 7540,
  "终": 7541,
  "绍": 7542,
  "绎": 7543,
  "经": 7544,
  "绑": 7545,
  "结": 7546,
  "绕": 7547,
  "绘": 7548,
  "给": 7549,
  "络": 7550,
  "绝": 7551,
  "统": 7552,
  "继": 7553,
  "绩": 7554,
  "续": 7555,
  "维": 7556,
  "绵": 7557,
  "综": 7558,
  "绿": 7559,
  "缆": 7560,
  "缓": 7561,
  "编": 7562,
  "缘": 7563,
  "缚": 7564,
  "缝": 7565,
  "缩": 7566,
  "缺": 7567,
  "罐": 7568,
  "网": 7569,
  "罗": 7570,
  "罢": 7571,
  "罪": 7572,
  "置": 7573,
  "署": 7574,
  "罹": 7575,
  "羅": 7576,
  "羊": 7577,
  "美": 7578,
  "羞": 7579,
  "羡": 7580,
  "羢": 7581,
  "群": 7582,
  "義": 7583,
  "羬": 7584,
  "羲": 7585,
  "羸": 7586,
  "羽": 7587,
  "翁": 7588,
  "翅": 7589,
  "翌": 7590,
  "習": 7591,
  "翔": 7592,
  "翘": 7593,
  "翠": 7594,
  "翰": 7595,
  "翻": 7596,
  "翼": 7597,
  "耀": 7598,
  "老": 7599,
  "考": 7600,
  "者": 7601,
  "而": 7602,
  "耍": 7603,
  "耐": 7604,
  "耗": 7605,
  "耳": 7606,
  "耶": 7607,
  "耷": 7608,
  "耻": 7609,
  "聂": 7610,
  "聆": 7611,
  "聊": 7612,
  "聋": 7613,
  "职": 7614,
  "联": 7615,
  "聖": 7616,
  "聘": 7617,
  "聚": 7618,
  "聞": 7619,
  "聡": 7620,
  "聪": 7621,
  "聯": 7622,
  "聲": 7623,
  "聴": 7624,
  "聶": 7625,
  "職": 7626,
  "聽": 7627,
  "聿": 7628,
  "肃": 7629,
  "肇": 7630,
  "肉": 7631,
  "肌": 7632,
  "肖": 7633,
  "肝": 7634,
  "肠": 7635,
  "股": 7636,
  "肤": 7637,
  "肥": 7638,
  "肩": 7639,
  "肮": 7640,
  "肯": 7641,
  "育": 7642,
  "肺": 7643,
  "胀": 7644,
  "胁": 7645,
  "胆": 7646,
  "背": 7647,
  "胎": 7648,
  "胖": 7649,
  "胜": 7650,
  "胞": 7651,
  "胡": 7652,
  "胥": 7653,
  "胳": 7654,
  "胸": 7655,
  "能": 7656,
  "脂": 7657,
  "脅": 7658,
  "脆": 7659,
  "脈": 7660,
  "脉": 7661,
  "脏": 7662,
  "脑": 7663,
  "脚": 7664,
  "脩": 7665,
  "脱": 7666,
  "脸": 7667,
  "脾": 7668,
  "腊": 7669,
  "腎": 7670,
  "腐": 7671,
  "腔": 7672,
  "腕": 7673,
  "腦": 7674,
  "腰": 7675,
  "腳": 7676,
  "腹": 7677,
  "腺": 7678,
  "腾": 7679,
  "腿": 7680,
  "膀": 7681,
  "膆": 7682,
  "膏": 7683,
  "膚": 7684,
  "膝": 7685,
  "膳": 7686,
  "臀": 7687,
  "臂": 7688,
  "臕": 7689,
  "臘": 7690,
  "臣": 7691,
  "臥": 7692,
  "臨": 7693,
  "自": 7694,
  "臭": 7695,
  "至": 7696,
  "致": 7697,
  "臺": 7698,
  "臼": 7699,
  "舅": 7700,
  "與": 7701,
  "興": 7702,
  "舉": 7703,
  "舊": 7704,
  "舌": 7705,
  "舍": 7706,
  "舎": 7707,
  "舒": 7708,
  "舘": 7709,
  "舞": 7710,
  "舟": 7711,
  "航": 7712,
  "般": 7713,
  "舰": 7714,
  "舱": 7715,
  "船": 7716,
  "艘": 7717,
  "艦": 7718,
  "良": 7719,
  "色": 7720,
  "艳": 7721,
  "艸": 7722,
  "艺": 7723,
  "艾": 7724,
  "节": 7725,
  "芒": 7726,
  "芙": 7727,
  "芝": 7728,
  "芟": 7729,
  "芦": 7730,
  "芬": 7731,
  "芯": 7732,
  "花": 7733,
  "芳": 7734,
  "芸": 7735,
  "芽": 7736,
  "苄": 7737,
  "苅": 7738,
  "苍": 7739,
  "苏": 7740,
  "苑": 7741,
  "苓": 7742,
  "苔": 7743,
  "苗": 7744,
  "苞": 7745,
  "若": 7746,
  "苦": 7747,
  "英": 7748,
  "茂": 7749,
  "范": 7750,
  "茄": 7751,
  "茅": 7752,
  "茉": 7753,
  "茗": 7754,
  "茜": 7755,
  "茨": 7756,
  "茶": 7757,
  "茹": 7758,
  "荀": 7759,
  "草": 7760,
  "荐": 7761,
  "荑": 7762,
  "荒": 7763,
  "荔": 7764,
  "荘": 7765,
  "荣": 7766,
  "药": 7767,
  "荷": 7768,
  "莆": 7769,
  "莉": 7770,
  "莊": 7771,
  "莎": 7772,
  "莖": 7773,
  "莞": 7774,
  "莨": 7775,
  "莫": 7776,
  "莱": 7777,
  "莲": 7778,
  "获": 7779,
  "菁": 7780,
  "菅": 7781,
  "菇": 7782,
  "菊": 7783,
  "菌": 7784,
  "菓": 7785,
  "菜": 7786,
  "菠": 7787,
  "華": 7788,
  "菱": 7789,
  "菲": 7790,
  "萄": 7791,
  "萊": 7792,
  "萎": 7793,
  "萝": 7794,
  "萤": 7795,
  "营": 7796,
  "萦": 7797,
  "萨": 7798,
  "萩": 7799,
  "萬": 7800,
  "萰": 7801,
  "萱": 7802,
  "萻": 7803,
  "落": 7804,
  "葉": 7805,
  "葏": 7806,
  "著": 7807,
  "葛": 7808,
  "葡": 7809,
  "董": 7810,
  "葬": 7811,
  "葱": 7812,
  "葵": 7813,
  "葺": 7814,
  "蒂": 7815,
  "蒋": 7816,
  "蒙": 7817,
  "蒜": 7818,
  "蒲": 7819,
  "蒼": 7820,
  "蓄": 7821,
  "蓉": 7822,
  "蓝": 7823,
  "蓬": 7824,
  "蓮": 7825,
  "蔡": 7826,
  "蔣": 7827,
  "蔥": 7828,
  "蔬": 7829,
  "蔵": 7830,
  "蔽": 7831,
  "蕉": 7832,
  "蕎": 7833,
  "蕩": 7834,
  "蕾": 7835,
  "薄": 7836,
  "薇": 7837,
  "薑": 7838,
  "薔": 7839,
  "薙": 7840,
  "薛": 7841,
  "薤": 7842,
  "薦": 7843,
  "薩": 7844,
  "薫": 7845,
  "薬": 7846,
  "薹": 7847,
  "藉": 7848,
  "藍": 7849,
  "藏": 7850,
  "藝": 7851,
  "藤": 7852,
  "藥": 7853,
  "藩": 7854,
  "藺": 7855,
  "藻": 7856,
  "藿": 7857,
  "蘇": 7858,
  "蘋": 7859,
  "蘭": 7860,
  "蘿": 7861,
  "虎": 7862,
  "虏": 7863,
  "虐": 7864,
  "虑": 7865,
  "處": 7866,
  "虖": 7867,
  "虚": 7868,
  "虞": 7869,
  "號": 7870,
  "虫": 7871,
  "虹": 7872,
  "虽": 7873,
  "虾": 7874,
  "蚁": 7875,
  "蚊": 7876,
  "蚶": 7877,
  "蛇": 7878,
  "蛋": 7879,
  "蛍": 7880,
  "蛙": 7881,
  "蛛": 7882,
  "蛤": 7883,
  "蛭": 7884,
  "蛹": 7885,
  "蛻": 7886,
  "蛾": 7887,
  "蜀": 7888,
  "蜂": 7889,
  "蜗": 7890,
  "蜘": 7891,
  "蜚": 7892,
  "蜜": 7893,
  "蜡": 7894,
  "蜥": 7895,
  "蝇": 7896,
  "蝪": 7897,
  "蝶": 7898,
  "螂": 7899,
  "融": 7900,
  "螭": 7901,
  "螳": 7902,
  "螺": 7903,
  "蟆": 7904,
  "蟲": 7905,
  "蠢": 7906,
  "蠻": 7907,
  "血": 7908,
  "衆": 7909,
  "行": 7910,
  "術": 7911,
  "街": 7912,
  "衛": 7913,
  "衝": 7914,
  "衡": 7915,
  "衢": 7916,
  "衣": 7917,
  "补": 7918,
  "表": 7919,
  "衫": 7920,
  "衬": 7921,
  "衰": 7922,
  "衷": 7923,
  "袁": 7924,
  "袋": 7925,
  "袍": 7926,
  "袖": 7927,
  "被": 7928,
  "袭": 7929,
  "裁": 7930,
  "裂": 7931,
  "装": 7932,
  "裏": 7933,
  "裔": 7934,
  "裕": 7935,
  "裙": 7936,
  "補": 7937,
  "裝": 7938,
  "裡": 7939,
  "裸": 7940,
  "製": 7941,
  "複": 7942,
  "褐": 7943,
  "褒": 7944,
  "褲": 7945,
  "襯": 7946,
  "襲": 7947,
  "西": 7948,
  "要": 7949,
  "覃": 7950,
  "覆": 7951,
  "覇": 7952,
  "見": 7953,
  "規": 7954,
  "視": 7955,
  "覗": 7956,
  "覚": 7957,
  "覧": 7958,
  "親": 7959,
  "観": 7960,
  "覺": 7961,
  "覽": 7962,
  "觀": 7963,
  "见": 7964,
  "观": 7965,
  "规": 7966,
  "视": 7967,
  "览": 7968,
  "觉": 7969,
  "角": 7970,
  "解": 7971,
  "触": 7972,
  "觸": 7973,
  "言": 7974,
  "訂": 7975,
  "計": 7976,
  "討": 7977,
  "訓": 7978,
  "記": 7979,
  "訛": 7980,
  "訪": 7981,
  "設": 7982,
  "許": 7983,
  "訳": 7984,
  "診": 7985,
  "註": 7986,
  "証": 7987,
  "詐": 7988,
  "詔": 7989,
  "評": 7990,
  "詞": 7991,
  "詠": 7992,
  "詣": 7993,
  "試": 7994,
  "詩": 7995,
  "詮": 7996,
  "詰": 7997,
  "話": 7998,
  "該": 7999,
  "詳": 8000,
  "誅": 8001,
  "誇": 8002,
  "誉": 8003,
  "誌": 8004,
  "認": 8005,
  "誓": 8006,
  "誕": 8007,
  "語": 8008,
  "誠": 8009,
  "誡": 8010,
  "誤": 8011,
  "誦": 8012,
  "說": 8013,
  "説": 8014,
  "読": 8015,
  "誰": 8016,
  "課": 8017,
  "調": 8018,
  "談": 8019,
  "請": 8020,
  "諏": 8021,
  "論": 8022,
  "諷": 8023,
  "諸": 8024,
  "諺": 8025,
  "諾": 8026,
  "謀": 8027,
  "謂": 8028,
  "謎": 8029,
  "謐": 8030,
  "謙": 8031,
  "講": 8032,
  "謝": 8033,
  "謬": 8034,
  "謹": 8035,
  "證": 8036,
  "識": 8037,
  "譚": 8038,
  "譜": 8039,
  "警": 8040,
  "譬": 8041,
  "譯": 8042,
  "議": 8043,
  "護": 8044,
  "譽": 8045,
  "讀": 8046,
  "變": 8047,
  "讒": 8048,
  "讓": 8049,
  "讚": 8050,
  "计": 8051,
  "订": 8052,
  "讣": 8053,
  "认": 8054,
  "讨": 8055,
  "让": 8056,
  "训": 8057,
  "议": 8058,
  "讯": 8059,
  "记": 8060,
  "讲": 8061,
  "许": 8062,
  "讹": 8063,
  "论": 8064,
  "讼": 8065,
  "设": 8066,
  "访": 8067,
  "诀": 8068,
  "证": 8069,
  "评": 8070,
  "识": 8071,
  "诉": 8072,
  "诊": 8073,
  "词": 8074,
  "诏": 8075,
  "译": 8076,
  "试": 8077,
  "诗": 8078,
  "诚": 8079,
  "诛": 8080,
  "话": 8081,
  "诞": 8082,
  "询": 8083,
  "该": 8084,
  "详": 8085,
  "语": 8086,
  "误": 8087,
  "诱": 8088,
  "说": 8089,
  "请": 8090,
  "诸": 8091,
  "诺": 8092,
  "读": 8093,
  "诽": 8094,
  "课": 8095,
  "谁": 8096,
  "调": 8097,
  "谅": 8098,
  "谈": 8099,
  "谊": 8100,
  "谋": 8101,
  "谎": 8102,
  "谜": 8103,
  "谟": 8104,
  "谢": 8105,
  "谨": 8106,
  "谬": 8107,
  "谭": 8108,
  "谱": 8109,
  "谴": 8110,
  "谷": 8111,
  "豆": 8112,
  "豊": 8113,
  "豐": 8114,
  "豕": 8115,
  "象": 8116,
  "豢": 8117,
  "豪": 8118,
  "豫": 8119,
  "貌": 8120,
  "貓": 8121,
  "貝": 8122,
  "貞": 8123,
  "負": 8124,
  "財": 8125,
  "貧": 8126,
  "貨": 8127,
  "販": 8128,
  "貫": 8129,
  "責": 8130,
  "貴": 8131,
  "貶": 8132,
  "買": 8133,
  "貸": 8134,
  "費": 8135,
  "貼": 8136,
  "貿": 8137,
  "賀": 8138,
  "賃": 8139,
  "資": 8140,
  "賞": 8141,
  "賢": 8142,
  "賦": 8143,
  "質": 8144,
  "賭": 8145,
  "賴": 8146,
  "購": 8147,
  "賽": 8148,
  "贊": 8149,
  "贝": 8150,
  "贞": 8151,
  "负": 8152,
  "贡": 8153,
  "财": 8154,
  "责": 8155,
  "败": 8156,
  "账": 8157,
  "货": 8158,
  "质": 8159,
  "贩": 8160,
  "购": 8161,
  "贯": 8162,
  "贲": 8163,
  "贴": 8164,
  "贵": 8165,
  "贸": 8166,
  "费": 8167,
  "贺": 8168,
  "贼": 8169,
  "贾": 8170,
  "贿": 8171,
  "赂": 8172,
  "资": 8173,
  "赏": 8174,
  "赐": 8175,
  "赑": 8176,
  "赛": 8177,
  "赞": 8178,
  "赠": 8179,
  "赢": 8180,
  "赤": 8181,
  "赦": 8182,
  "赫": 8183,
  "走": 8184,
  "赴": 8185,
  "赵": 8186,
  "赶": 8187,
  "起": 8188,
  "超": 8189,
  "越": 8190,
  "趋": 8191,
  "趕": 8192,
  "趙": 8193,
  "趟": 8194,
  "趣": 8195,
  "趨": 8196,
  "足": 8197,
  "跃": 8198,
  "跆": 8199,
  "跌": 8200,
  "跑": 8201,
  "距": 8202,
  "跟": 8203,
  "跡": 8204,
  "跨": 8205,
  "跪": 8206,
  "路": 8207,
  "跳": 8208,
  "践": 8209,
  "踊": 8210,
  "踏": 8211,
  "踢": 8212,
  "踩": 8213,
  "踪": 8214,
  "蹈": 8215,
  "蹊": 8216,
  "蹟": 8217,
  "蹤": 8218,
  "躍": 8219,
  "身": 8220,
  "躯": 8221,
  "躲": 8222,
  "躺": 8223,
  "車": 8224,
  "軌": 8225,
  "軍": 8226,
  "軟": 8227,
  "転": 8228,
  "軧": 8229,
  "軸": 8230,
  "軽": 8231,
  "較": 8232,
  "載": 8233,
  "輔": 8234,
  "輕": 8235,
  "輝": 8236,
  "輩": 8237,
  "輪": 8238,
  "輯": 8239,
  "轄": 8240,
  "轉": 8241,
  "车": 8242,
  "轨": 8243,
  "转": 8244,
  "轮": 8245,
  "软": 8246,
  "轻": 8247,
  "载": 8248,
  "较": 8249,
  "辅": 8250,
  "辈": 8251,
  "辉": 8252,
  "辐": 8253,
  "辑": 8254,
  "输": 8255,
  "辖": 8256,
  "辛": 8257,
  "辜": 8258,
  "辞": 8259,
  "辟": 8260,
  "辣": 8261,
  "辦": 8262,
  "辨": 8263,
  "辩": 8264,
  "辰": 8265,
  "辱": 8266,
  "農": 8267,
  "辶": 8268,
  "边": 8269,
  "辺": 8270,
  "辻": 8271,
  "込": 8272,
  "辽": 8273,
  "达": 8274,
  "辿": 8275,
  "迁": 8276,
  "迄": 8277,
  "迅": 8278,
  "过": 8279,
  "迈": 8280,
  "迎": 8281,
  "运": 8282,
  "近": 8283,
  "返": 8284,
  "还": 8285,
  "这": 8286,
  "进": 8287,
  "远": 8288,
  "连": 8289,
  "迟": 8290,
  "迦": 8291,
  "迪": 8292,
  "迫": 8293,
  "述": 8294,
  "迷": 8295,
  "迹": 8296,
  "追": 8297,
  "退": 8298,
  "送": 8299,
  "适": 8300,
  "逃": 8301,
  "逅": 8302,
  "逆": 8303,
  "选": 8304,
  "逊": 8305,
  "透": 8306,
  "逐": 8307,
  "递": 8308,
  "途": 8309,
  "逗": 8310,
  "這": 8311,
  "通": 8312,
  "逛": 8313,
  "逝": 8314,
  "速": 8315,
  "造": 8316,
  "逢": 8317,
  "連": 8318,
  "週": 8319,
  "進": 8320,
  "逸": 8321,
  "逻": 8322,
  "逾": 8323,
  "遁": 8324,
  "遂": 8325,
  "遅": 8326,
  "遇": 8327,
  "遊": 8328,
  "運": 8329,
  "遍": 8330,
  "過": 8331,
  "道": 8332,
  "達": 8333,
  "違": 8334,
  "遗": 8335,
  "遜": 8336,
  "遞": 8337,
  "遠": 8338,
  "遣": 8339,
  "遥": 8340,
  "適": 8341,
  "遭": 8342,
  "遮": 8343,
  "遵": 8344,
  "選": 8345,
  "遺": 8346,
  "遼": 8347,
  "遽": 8348,
  "避": 8349,
  "邀": 8350,
  "邁": 8351,
  "邂": 8352,
  "還": 8353,
  "邉": 8354,
  "邊": 8355,
  "邑": 8356,
  "邓": 8357,
  "那": 8358,
  "邦": 8359,
  "邪": 8360,
  "邮": 8361,
  "邯": 8362,
  "邵": 8363,
  "邸": 8364,
  "邻": 8365,
  "郁": 8366,
  "郎": 8367,
  "郑": 8368,
  "郝": 8369,
  "郡": 8370,
  "部": 8371,
  "郭": 8372,
  "郵": 8373,
  "郷": 8374,
  "郸": 8375,
  "都": 8376,
  "鄂": 8377,
  "鄉": 8378,
  "鄩": 8379,
  "鄭": 8380,
  "鄰": 8381,
  "酉": 8382,
  "配": 8383,
  "酒": 8384,
  "酔": 8385,
  "酢": 8386,
  "酪": 8387,
  "酵": 8388,
  "酶": 8389,
  "酷": 8390,
  "酸": 8391,
  "酿": 8392,
  "醇": 8393,
  "醉": 8394,
  "醒": 8395,
  "醫": 8396,
  "醬": 8397,
  "采": 8398,
  "释": 8399,
  "釋": 8400,
  "里": 8401,
  "重": 8402,
  "野": 8403,
  "量": 8404,
  "釐": 8405,
  "金": 8406,
  "針": 8407,
  "鈎": 8408,
  "鈕": 8409,
  "鈞": 8410,
  "鈴": 8411,
  "鉄": 8412,
  "鉱": 8413,
  "鉴": 8414,
  "銀": 8415,
  "銃": 8416,
  "銅": 8417,
  "銈": 8418,
  "銉": 8419,
  "銘": 8420,
  "銛": 8421,
  "銭": 8422,
  "銷": 8423,
  "鋭": 8424,
  "鋼": 8425,
  "錄": 8426,
  "錕": 8427,
  "錠": 8428,
  "錢": 8429,
  "錤": 8430,
  "錦": 8431,
  "錫": 8432,
  "錮": 8433,
  "錯": 8434,
  "録": 8435,
  "鍵": 8436,
  "鍾": 8437,
  "鎌": 8438,
  "鎖": 8439,
  "鎧": 8440,
  "鎮": 8441,
  "鏈": 8442,
  "鏡": 8443,
  "鏢": 8444,
  "鐘": 8445,
  "鐵": 8446,
  "鑑": 8447,
  "鑣": 8448,
  "鑫": 8449,
  "针": 8450,
  "钊": 8451,
  "钓": 8452,
  "钟": 8453,
  "钢": 8454,
  "钮": 8455,
  "钰": 8456,
  "钱": 8457,
  "钵": 8458,
  "钻": 8459,
  "铁": 8460,
  "铃": 8461,
  "铅": 8462,
  "铎": 8463,
  "铛": 8464,
  "铜": 8465,
  "铭": 8466,
  "银": 8467,
  "铺": 8468,
  "链": 8469,
  "销": 8470,
  "锁": 8471,
  "锅": 8472,
  "锋": 8473,
  "锐": 8474,
  "错": 8475,
  "锡": 8476,
  "锦": 8477,
  "键": 8478,
  "镇": 8479,
  "镛": 8480,
  "長": 8481,
  "长": 8482,
  "門": 8483,
  "閃": 8484,
  "閉": 8485,
  "開": 8486,
  "閑": 8487,
  "閒": 8488,
  "間": 8489,
  "閔": 8490,
  "関": 8491,
  "閣": 8492,
  "閭": 8493,
  "閱": 8494,
  "閲": 8495,
  "闆": 8496,
  "闇": 8497,
  "闘": 8498,
  "關": 8499,
  "门": 8500,
  "闪": 8501,
  "闭": 8502,
  "问": 8503,
  "闯": 8504,
  "闲": 8505,
  "间": 8506,
  "闻": 8507,
  "阁": 8508,
  "阅": 8509,
  "阎": 8510,
  "阔": 8511,
  "阙": 8512,
  "阜": 8513,
  "阝": 8514,
  "队": 8515,
  "阪": 8516,
  "阱": 8517,
  "防": 8518,
  "阳": 8519,
  "阴": 8520,
  "阵": 8521,
  "阶": 8522,
  "阻": 8523,
  "阿": 8524,
  "陂": 8525,
  "附": 8526,
  "际": 8527,
  "陆": 8528,
  "陇": 8529,
  "陈": 8530,
  "陌": 8531,
  "降": 8532,
  "限": 8533,
  "陕": 8534,
  "陛": 8535,
  "陡": 8536,
  "院": 8537,
  "陣": 8538,
  "除": 8539,
  "险": 8540,
  "陪": 8541,
  "陰": 8542,
  "陳": 8543,
  "陵": 8544,
  "陶": 8545,
  "陷": 8546,
  "陸": 8547,
  "険": 8548,
  "陽": 8549,
  "隅": 8550,
  "隆": 8551,
  "隊": 8552,
  "隋": 8553,
  "階": 8554,
  "随": 8555,
  "隐": 8556,
  "隔": 8557,
  "隕": 8558,
  "隙": 8559,
  "際": 8560,
  "障": 8561,
  "隠": 8562,
  "隣": 8563,
  "隨": 8564,
  "隱": 8565,
  "隻": 8566,
  "难": 8567,
  "雀": 8568,
  "雁": 8569,
  "雄": 8570,
  "雅": 8571,
  "集": 8572,
  "雇": 8573,
  "雋": 8574,
  "雑": 8575,
  "雖": 8576,
  "雙": 8577,
  "雛": 8578,
  "雜": 8579,
  "雞": 8580,
  "離": 8581,
  "難": 8582,
  "雨": 8583,
  "雪": 8584,
  "雫": 8585,
  "雰": 8586,
  "雲": 8587,
  "零": 8588,
  "雷": 8589,
  "電": 8590,
  "雾": 8591,
  "需": 8592,
  "霆": 8593,
  "震": 8594,
  "霉": 8595,
  "霊": 8596,
  "霖": 8597,
  "霜": 8598,
  "霞": 8599,
  "霤": 8600,
  "霧": 8601,
  "露": 8602,
  "霸": 8603,
  "霾": 8604,
  "靈": 8605,
  "青": 8606,
  "靖": 8607,
  "静": 8608,
  "靚": 8609,
  "靜": 8610,
  "非": 8611,
  "靠": 8612,
  "靡": 8613,
  "面": 8614,
  "革": 8615,
  "靳": 8616,
  "靴": 8617,
  "鞄": 8618,
  "鞋": 8619,
  "鞍": 8620,
  "鞭": 8621,
  "韋": 8622,
  "韌": 8623,
  "韓": 8624,
  "韦": 8625,
  "韧": 8626,
  "韩": 8627,
  "韬": 8628,
  "韭": 8629,
  "音": 8630,
  "韵": 8631,
  "韶": 8632,
  "響": 8633,
  "頁": 8634,
  "頂": 8635,
  "頃": 8636,
  "項": 8637,
  "順": 8638,
  "須": 8639,
  "頌": 8640,
  "預": 8641,
  "頑": 8642,
  "領": 8643,
  "頡": 8644,
  "頭": 8645,
  "頻": 8646,
  "頼": 8647,
  "題": 8648,
  "額": 8649,
  "顏": 8650,
  "顔": 8651,
  "願": 8652,
  "類": 8653,
  "顧": 8654,
  "顯": 8655,
  "页": 8656,
  "顶": 8657,
  "项": 8658,
  "顺": 8659,
  "须": 8660,
  "顽": 8661,
  "顾": 8662,
  "顿": 8663,
  "颁": 8664,
  "颂": 8665,
  "预": 8666,
  "领": 8667,
  "频": 8668,
  "颓": 8669,
  "颖": 8670,
  "题": 8671,
  "颜": 8672,
  "额": 8673,
  "颤": 8674,
  "風": 8675,
  "颱": 8676,
  "风": 8677,
  "飛": 8678,
  "飞": 8679,
  "食": 8680,
  "飠": 8681,
  "飯": 8682,
  "飲": 8683,
  "飽": 8684,
  "飾": 8685,
  "餃": 8686,
  "餅": 8687,
  "養": 8688,
  "餐": 8689,
  "餓": 8690,
  "餠": 8691,
  "餡": 8692,
  "館": 8693,
  "餮": 8694,
  "饒": 8695,
  "饕": 8696,
  "饗": 8697,
  "饣": 8698,
  "饥": 8699,
  "饭": 8700,
  "饮": 8701,
  "饰": 8702,
  "饱": 8703,
  "饵": 8704,
  "饶": 8705,
  "饺": 8706,
  "饼": 8707,
  "饿": 8708,
  "馁": 8709,
  "馆": 8710,
  "馈": 8711,
  "馍": 8712,
  "首": 8713,
  "馘": 8714,
  "香": 8715,
  "馨": 8716,
  "馬": 8717,
  "馳": 8718,
  "駄": 8719,
  "駅": 8720,
  "駐": 8721,
  "駒": 8722,
  "駕": 8723,
  "駿": 8724,
  "騎": 8725,
  "騒": 8726,
  "験": 8727,
  "騨": 8728,
  "騮": 8729,
  "騰": 8730,
  "騷": 8731,
  "驍": 8732,
  "驕": 8733,
  "驗": 8734,
  "驚": 8735,
  "驟": 8736,
  "马": 8737,
  "驰": 8738,
  "驱": 8739,
  "驳": 8740,
  "驻": 8741,
  "驼": 8742,
  "驾": 8743,
  "驿": 8744,
  "骂": 8745,
  "骄": 8746,
  "骅": 8747,
  "骆": 8748,
  "骇": 8749,
  "验": 8750,
  "骏": 8751,
  "骗": 8752,
  "骨": 8753,
  "骷": 8754,
  "髅": 8755,
  "體": 8756,
  "高": 8757,
  "髪": 8758,
  "髮": 8759,
  "鬆": 8760,
  "鬧": 8761,
  "鬪": 8762,
  "鬼": 8763,
  "魁": 8764,
  "魂": 8765,
  "魄": 8766,
  "魅": 8767,
  "魏": 8768,
  "魔": 8769,
  "魚": 8770,
  "魯": 8771,
  "鮑": 8772,
  "鮓": 8773,
  "鮨": 8774,
  "鮫": 8775,
  "鮮": 8776,
  "鯉": 8777,
  "鯨": 8778,
  "鰻": 8779,
  "鱼": 8780,
  "鲁": 8781,
  "鲍": 8782,
  "鲜": 8783,
  "鳞": 8784,
  "鳟": 8785,
  "鳥": 8786,
  "鳩": 8787,
  "鳯": 8788,
  "鳳": 8789,
  "鳴": 8790,
  "鴉": 8791,
  "鴎": 8792,
  "鴨": 8793,
  "鴻": 8794,
  "鵜": 8795,
  "鶴": 8796,
  "鷄": 8797,
  "鷹": 8798,
  "鸞": 8799,
  "鸟": 8800,
  "鸡": 8801,
  "鸣": 8802,
  "鸦": 8803,
  "鸭": 8804,
  "鸽": 8805,
  "鸿": 8806,
  "鹅": 8807,
  "鹏": 8808,
  "鹤": 8809,
  "鹱": 8810,
  "鹵": 8811,
  "鹹": 8812,
  "鹿": 8813,
  "麁": 8814,
  "麓": 8815,
  "麗": 8816,
  "麟": 8817,
  "麥": 8818,
  "麦": 8819,
  "麩": 8820,
  "麵": 8821,
  "麺": 8822,
  "麻": 8823,
  "麼": 8824,
  "麽": 8825,
  "麿": 8826,
  "黃": 8827,
  "黄": 8828,
  "黌": 8829,
  "黍": 8830,
  "黎": 8831,
  "黑": 8832,
  "黒": 8833,
  "默": 8834,
  "黙": 8835,
  "點": 8836,
  "黠": 8837,
  "黨": 8838,
  "黯": 8839,
  "黻": 8840,
  "鼎": 8841,
  "鼓": 8842,
  "鼠": 8843,
  "鼻": 8844,
  "齊": 8845,
  "齋": 8846,
  "齎": 8847,
  "齐": 8848,
  "齢": 8849,
  "齧": 8850,
  "龄": 8851,
  "龍": 8852,
  "龐": 8853,
  "龙": 8854,
  "龚": 8855,
  "ꀎ": 8856,
  "ꀤ": 8857,
  "ꂫ": 8858,
  "ꃞ": 8859,
  "ꈍ": 8860,
  "ꌩ": 8861,
  "ꍏ": 8862,
  "ꑭ": 8863,
  "꒒": 8864,
  "ꓝ": 8865,
  "ꓼ": 8866,
  "ꕤ": 8867,
  "ꗬ": 8868,
  "Ꙁ": 8869,
  "ꙁ": 8870,
  "Ꙋ": 8871,
  "ꙋ": 8872,
  "Ꙑ": 8873,
  "ꙑ": 8874,
  "Ꙗ": 8875,
  "Ꙭ": 8876,
  "ꙭ": 8877,
  "ꜜ": 8878,
  "ꜩ": 8879,
  "ꜰ": 8880,
  "ꜱ": 8881,
  "꞉": 8882,
  "꞊": 8883,
  "ꞌ": 8884,
  "ꞏ": 8885,
  "Ꞑ": 8886,
  "ꞵ": 8887,
  "ꟷ": 8888,
  "ꟾ": 8889,
  "꥟": 8890,
  "ꥪ": 8891,
  "ꥳ": 8892,
  "ꦫ": 8893,
  "ꦯ": 8894,
  "ꦶ": 8895,
  "꧀": 8896,
  "꧁": 8897,
  "꧂": 8898,
  "꧈": 8899,
  "꧋": 8900,
  "ꬬ": 8901,
  "ꮬ": 8902,
  "ꯂ": 8903,
  "ꯃ": 8904,
  "ꯇ": 8905,
  "ꯟ": 8906,
  "ꯣ": 8907,
  "ꯤ": 8908,
  "ꯩ": 8909,
  "가": 8910,
  "각": 8911,
  "간": 8912,
  "갈": 8913,
  "감": 8914,
  "갑": 8915,
  "값": 8916,
  "갓": 8917,
  "갔": 8918,
  "강": 8919,
  "같": 8920,
  "개": 8921,
  "객": 8922,
  "거": 8923,
  "걱": 8924,
  "건": 8925,
  "걷": 8926,
  "걸": 8927,
  "검": 8928,
  "겁": 8929,
  "것": 8930,
  "게": 8931,
  "겐": 8932,
  "겜": 8933,
  "겠": 8934,
  "겨": 8935,
  "격": 8936,
  "견": 8937,
  "결": 8938,
  "겸": 8939,
  "겼": 8940,
  "경": 8941,
  "계": 8942,
  "고": 8943,
  "곡": 8944,
  "곤": 8945,
  "곧": 8946,
  "골": 8947,
  "곰": 8948,
  "곱": 8949,
  "곳": 8950,
  "공": 8951,
  "과": 8952,
  "관": 8953,
  "광": 8954,
  "괜": 8955,
  "굉": 8956,
  "교": 8957,
  "구": 8958,
  "국": 8959,
  "군": 8960,
  "굿": 8961,
  "궁": 8962,
  "권": 8963,
  "귀": 8964,
  "규": 8965,
  "균": 8966,
  "그": 8967,
  "극": 8968,
  "근": 8969,
  "글": 8970,
  "금": 8971,
  "급": 8972,
  "기": 8973,
  "긴": 8974,
  "길": 8975,
  "김": 8976,
  "까": 8977,
  "깔": 8978,
  "깝": 8979,
  "깨": 8980,
  "껐": 8981,
  "께": 8982,
  "껴": 8983,
  "꼈": 8984,
  "꼭": 8985,
  "꼴": 8986,
  "꼼": 8987,
  "꼽": 8988,
  "꽃": 8989,
  "꾼": 8990,
  "꿀": 8991,
  "꿈": 8992,
  "뀐": 8993,
  "끄": 8994,
  "끌": 8995,
  "끔": 8996,
  "끗": 8997,
  "끝": 8998,
  "끸": 8999,
  "끼": 9000,
  "나": 9001,
  "낙": 9002,
  "낚": 9003,
  "난": 9004,
  "날": 9005,
  "남": 9006,
  "났": 9007,
  "낭": 9008,
  "낯": 9009,
  "내": 9010,
  "낵": 9011,
  "냄": 9012,
  "냈": 9013,
  "냐": 9014,
  "냥": 9015,
  "너": 9016,
  "널": 9017,
  "넓": 9018,
  "넘": 9019,
  "넣": 9020,
  "네": 9021,
  "넷": 9022,
  "녀": 9023,
  "녁": 9024,
  "년": 9025,
  "념": 9026,
  "녕": 9027,
  "노": 9028,
  "녹": 9029,
  "논": 9030,
  "놀": 9031,
  "놈": 9032,
  "농": 9033,
  "놓": 9034,
  "뇽": 9035,
  "누": 9036,
  "눅": 9037,
  "눇": 9038,
  "눈": 9039,
  "눉": 9040,
  "눌": 9041,
  "뉴": 9042,
  "느": 9043,
  "늑": 9044,
  "는": 9045,
  "늘": 9046,
  "능": 9047,
  "늦": 9048,
  "니": 9049,
  "닉": 9050,
  "닌": 9051,
  "닐": 9052,
  "님": 9053,
  "닝": 9054,
  "다": 9055,
  "닥": 9056,
  "단": 9057,
  "닫": 9058,
  "달": 9059,
  "담": 9060,
  "답": 9061,
  "닷": 9062,
  "당": 9063,
  "대": 9064,
  "댄": 9065,
  "댓": 9066,
  "댕": 9067,
  "더": 9068,
  "덕": 9069,
  "던": 9070,
  "덜": 9071,
  "데": 9072,
  "델": 9073,
  "뎐": 9074,
  "뎲": 9075,
  "도": 9076,
  "독": 9077,
  "돌": 9078,
  "동": 9079,
  "되": 9080,
  "된": 9081,
  "될": 9082,
  "됨": 9083,
  "됩": 9084,
  "두": 9085,
  "둑": 9086,
  "둔": 9087,
  "둘": 9088,
  "둡": 9089,
  "뒤": 9090,
  "듀": 9091,
  "드": 9092,
  "득": 9093,
  "든": 9094,
  "듣": 9095,
  "들": 9096,
  "듬": 9097,
  "듭": 9098,
  "듯": 9099,
  "등": 9100,
  "디": 9101,
  "딘": 9102,
  "딩": 9103,
  "딪": 9104,
  "따": 9105,
  "땅": 9106,
  "때": 9107,
  "땡": 9108,
  "떠": 9109,
  "떤": 9110,
  "떨": 9111,
  "떻": 9112,
  "또": 9113,
  "똑": 9114,
  "뚜": 9115,
  "뚫": 9116,
  "뜨": 9117,
  "뜰": 9118,
  "뜻": 9119,
  "라": 9120,
  "락": 9121,
  "란": 9122,
  "람": 9123,
  "랍": 9124,
  "랑": 9125,
  "래": 9126,
  "랜": 9127,
  "램": 9128,
  "랩": 9129,
  "랫": 9130,
  "략": 9131,
  "량": 9132,
  "러": 9133,
  "런": 9134,
  "럼": 9135,
  "럽": 9136,
  "렀": 9137,
  "렇": 9138,
  "레": 9139,
  "렉": 9140,
  "렌": 9141,
  "렘": 9142,
  "려": 9143,
  "력": 9144,
  "련": 9145,
  "렬": 9146,
  "렴": 9147,
  "렸": 9148,
  "령": 9149,
  "례": 9150,
  "로": 9151,
  "록": 9152,
  "론": 9153,
  "롤": 9154,
  "롭": 9155,
  "롯": 9156,
  "롱": 9157,
  "료": 9158,
  "룡": 9159,
  "루": 9160,
  "룩": 9161,
  "룸": 9162,
  "류": 9163,
  "륙": 9164,
  "륜": 9165,
  "르": 9166,
  "른": 9167,
  "를": 9168,
  "름": 9169,
  "릅": 9170,
  "리": 9171,
  "릭": 9172,
  "린": 9173,
  "릴": 9174,
  "림": 9175,
  "립": 9176,
  "링": 9177,
  "마": 9178,
  "막": 9179,
  "만": 9180,
  "많": 9181,
  "말": 9182,
  "맘": 9183,
  "맛": 9184,
  "망": 9185,
  "맞": 9186,
  "맡": 9187,
  "매": 9188,
  "맥": 9189,
  "맨": 9190,
  "맺": 9191,
  "머": 9192,
  "먹": 9193,
  "먼": 9194,
  "멈": 9195,
  "멋": 9196,
  "메": 9197,
  "멘": 9198,
  "멜": 9199,
  "며": 9200,
  "면": 9201,
  "멸": 9202,
  "명": 9203,
  "몇": 9204,
  "모": 9205,
  "목": 9206,
  "몬": 9207,
  "몰": 9208,
  "못": 9209,
  "몽": 9210,
  "뫼": 9211,
  "묘": 9212,
  "무": 9213,
  "묵": 9214,
  "묶": 9215,
  "문": 9216,
  "묻": 9217,
  "물": 9218,
  "뭐": 9219,
  "뭔": 9220,
  "므": 9221,
  "미": 9222,
  "민": 9223,
  "믿": 9224,
  "밀": 9225,
  "밍": 9226,
  "및": 9227,
  "밑": 9228,
  "바": 9229,
  "박": 9230,
  "밖": 9231,
  "반": 9232,
  "받": 9233,
  "발": 9234,
  "밝": 9235,
  "밤": 9236,
  "밥": 9237,
  "방": 9238,
  "배": 9239,
  "백": 9240,
  "버": 9241,
  "벅": 9242,
  "번": 9243,
  "벌": 9244,
  "범": 9245,
  "법": 9246,
  "베": 9247,
  "벡": 9248,
  "벤": 9249,
  "벨": 9250,
  "벼": 9251,
  "벽": 9252,
  "변": 9253,
  "별": 9254,
  "병": 9255,
  "볥": 9256,
  "보": 9257,
  "복": 9258,
  "본": 9259,
  "볼": 9260,
  "볿": 9261,
  "봄": 9262,
  "봉": 9263,
  "봐": 9264,
  "부": 9265,
  "북": 9266,
  "분": 9267,
  "불": 9268,
  "붉": 9269,
  "뷔": 9270,
  "뷰": 9271,
  "브": 9272,
  "블": 9273,
  "비": 9274,
  "빅": 9275,
  "빈": 9276,
  "빌": 9277,
  "빛": 9278,
  "빠": 9279,
  "빼": 9280,
  "뺨": 9281,
  "뻐": 9282,
  "뻘": 9283,
  "뼈": 9284,
  "뽕": 9285,
  "뿌": 9286,
  "뿐": 9287,
  "쁉": 9288,
  "쁘": 9289,
  "쁙": 9290,
  "쁜": 9291,
  "쁡": 9292,
  "쁨": 9293,
  "쁵": 9294,
  "삐": 9295,
  "사": 9296,
  "삭": 9297,
  "산": 9298,
  "살": 9299,
  "삼": 9300,
  "상": 9301,
  "새": 9302,
  "색": 9303,
  "샌": 9304,
  "생": 9305,
  "샤": 9306,
  "샬": 9307,
  "샵": 9308,
  "서": 9309,
  "석": 9310,
  "선": 9311,
  "설": 9312,
  "섬": 9313,
  "섭": 9314,
  "섯": 9315,
  "성": 9316,
  "세": 9317,
  "센": 9318,
  "셀": 9319,
  "셋": 9320,
  "셔": 9321,
  "션": 9322,
  "셜": 9323,
  "셨": 9324,
  "소": 9325,
  "속": 9326,
  "손": 9327,
  "솔": 9328,
  "송": 9329,
  "쇄": 9330,
  "쇠": 9331,
  "쇼": 9332,
  "수": 9333,
  "숙": 9334,
  "순": 9335,
  "술": 9336,
  "숨": 9337,
  "쉬": 9338,
  "쉽": 9339,
  "슈": 9340,
  "스": 9341,
  "슨": 9342,
  "슬": 9343,
  "슴": 9344,
  "습": 9345,
  "승": 9346,
  "시": 9347,
  "식": 9348,
  "신": 9349,
  "실": 9350,
  "심": 9351,
  "십": 9352,
  "싱": 9353,
  "싶": 9354,
  "싸": 9355,
  "싹": 9356,
  "싼": 9357,
  "쌀": 9358,
  "쌍": 9359,
  "써": 9360,
  "쏘": 9361,
  "쓰": 9362,
  "씀": 9363,
  "씌": 9364,
  "씨": 9365,
  "씩": 9366,
  "씬": 9367,
  "아": 9368,
  "악": 9369,
  "안": 9370,
  "앉": 9371,
  "않": 9372,
  "알": 9373,
  "앓": 9374,
  "암": 9375,
  "앗": 9376,
  "았": 9377,
  "앙": 9378,
  "앞": 9379,
  "애": 9380,
  "액": 9381,
  "앤": 9382,
  "앨": 9383,
  "앱": 9384,
  "야": 9385,
  "약": 9386,
  "양": 9387,
  "어": 9388,
  "억": 9389,
  "언": 9390,
  "얻": 9391,
  "얼": 9392,
  "엄": 9393,
  "업": 9394,
  "없": 9395,
  "엇": 9396,
  "었": 9397,
  "에": 9398,
  "엔": 9399,
  "엖": 9400,
  "엘": 9401,
  "엠": 9402,
  "여": 9403,
  "역": 9404,
  "연": 9405,
  "열": 9406,
  "염": 9407,
  "엽": 9408,
  "였": 9409,
  "영": 9410,
  "옆": 9411,
  "예": 9412,
  "옛": 9413,
  "오": 9414,
  "옥": 9415,
  "온": 9416,
  "올": 9417,
  "옮": 9418,
  "옵": 9419,
  "옹": 9420,
  "와": 9421,
  "완": 9422,
  "왔": 9423,
  "왕": 9424,
  "왠": 9425,
  "외": 9426,
  "요": 9427,
  "욕": 9428,
  "용": 9429,
  "우": 9430,
  "욱": 9431,
  "운": 9432,
  "울": 9433,
  "움": 9434,
  "웃": 9435,
  "웅": 9436,
  "워": 9437,
  "원": 9438,
  "월": 9439,
  "웠": 9440,
  "웨": 9441,
  "웹": 9442,
  "위": 9443,
  "윈": 9444,
  "유": 9445,
  "육": 9446,
  "윤": 9447,
  "율": 9448,
  "으": 9449,
  "은": 9450,
  "을": 9451,
  "음": 9452,
  "읍": 9453,
  "응": 9454,
  "의": 9455,
  "이": 9456,
  "익": 9457,
  "인": 9458,
  "일": 9459,
  "읽": 9460,
  "잃": 9461,
  "임": 9462,
  "입": 9463,
  "잇": 9464,
  "있": 9465,
  "잉": 9466,
  "잊": 9467,
  "자": 9468,
  "작": 9469,
  "잔": 9470,
  "잘": 9471,
  "잠": 9472,
  "잡": 9473,
  "잤": 9474,
  "장": 9475,
  "재": 9476,
  "쟁": 9477,
  "저": 9478,
  "적": 9479,
  "전": 9480,
  "절": 9481,
  "점": 9482,
  "접": 9483,
  "정": 9484,
  "제": 9485,
  "젝": 9486,
  "젤": 9487,
  "젯": 9488,
  "져": 9489,
  "젼": 9490,
  "졌": 9491,
  "조": 9492,
  "족": 9493,
  "존": 9494,
  "좀": 9495,
  "종": 9496,
  "좋": 9497,
  "좌": 9498,
  "죄": 9499,
  "죠": 9500,
  "주": 9501,
  "죽": 9502,
  "준": 9503,
  "줄": 9504,
  "중": 9505,
  "줘": 9506,
  "쥔": 9507,
  "즈": 9508,
  "즉": 9509,
  "즐": 9510,
  "증": 9511,
  "즦": 9512,
  "지": 9513,
  "직": 9514,
  "진": 9515,
  "질": 9516,
  "집": 9517,
  "짓": 9518,
  "징": 9519,
  "짝": 9520,
  "짬": 9521,
  "짱": 9522,
  "째": 9523,
  "쪽": 9524,
  "쭈": 9525,
  "쯤": 9526,
  "찍": 9527,
  "찝": 9528,
  "차": 9529,
  "착": 9530,
  "찬": 9531,
  "찮": 9532,
  "참": 9533,
  "창": 9534,
  "찾": 9535,
  "채": 9536,
  "책": 9537,
  "챌": 9538,
  "처": 9539,
  "척": 9540,
  "천": 9541,
  "철": 9542,
  "첩": 9543,
  "첫": 9544,
  "청": 9545,
  "체": 9546,
  "쳐": 9547,
  "쳺": 9548,
  "쳿": 9549,
  "초": 9550,
  "촉": 9551,
  "촌": 9552,
  "총": 9553,
  "촣": 9554,
  "최": 9555,
  "추": 9556,
  "축": 9557,
  "출": 9558,
  "춥": 9559,
  "충": 9560,
  "춰": 9561,
  "취": 9562,
  "츄": 9563,
  "츠": 9564,
  "측": 9565,
  "층": 9566,
  "치": 9567,
  "칙": 9568,
  "친": 9569,
  "칠": 9570,
  "침": 9571,
  "카": 9572,
  "칸": 9573,
  "칼": 9574,
  "캐": 9575,
  "캡": 9576,
  "커": 9577,
  "컨": 9578,
  "컬": 9579,
  "컴": 9580,
  "컵": 9581,
  "컹": 9582,
  "케": 9583,
  "켜": 9584,
  "켠": 9585,
  "코": 9586,
  "콕": 9587,
  "콘": 9588,
  "쿠": 9589,
  "쿤": 9590,
  "쿨": 9591,
  "쿱": 9592,
  "퀴": 9593,
  "크": 9594,
  "큰": 9595,
  "클": 9596,
  "큼": 9597,
  "키": 9598,
  "킥": 9599,
  "킨": 9600,
  "킬": 9601,
  "킹": 9602,
  "타": 9603,
  "탁": 9604,
  "탄": 9605,
  "탐": 9606,
  "탑": 9607,
  "탕": 9608,
  "태": 9609,
  "택": 9610,
  "탠": 9611,
  "터": 9612,
  "털": 9613,
  "테": 9614,
  "텐": 9615,
  "텔": 9616,
  "톆": 9617,
  "토": 9618,
  "톡": 9619,
  "톱": 9620,
  "톳": 9621,
  "통": 9622,
  "퇴": 9623,
  "투": 9624,
  "트": 9625,
  "특": 9626,
  "튼": 9627,
  "틀": 9628,
  "티": 9629,
  "틱": 9630,
  "틴": 9631,
  "팁": 9632,
  "팅": 9633,
  "파": 9634,
  "판": 9635,
  "팔": 9636,
  "팟": 9637,
  "팡": 9638,
  "패": 9639,
  "팽": 9640,
  "퍼": 9641,
  "펌": 9642,
  "페": 9643,
  "펜": 9644,
  "편": 9645,
  "평": 9646,
  "폐": 9647,
  "포": 9648,
  "폭": 9649,
  "폰": 9650,
  "폴": 9651,
  "퐁": 9652,
  "표": 9653,
  "푸": 9654,
  "풀": 9655,
  "품": 9656,
  "풋": 9657,
  "풍": 9658,
  "퓕": 9659,
  "퓸": 9660,
  "퓻": 9661,
  "퓽": 9662,
  "픁": 9663,
  "프": 9664,
  "플": 9665,
  "픔": 9666,
  "피": 9667,
  "필": 9668,
  "핑": 9669,
  "하": 9670,
  "학": 9671,
  "한": 9672,
  "할": 9673,
  "함": 9674,
  "합": 9675,
  "핫": 9676,
  "항": 9677,
  "해": 9678,
  "핸": 9679,
  "햅": 9680,
  "했": 9681,
  "행": 9682,
  "향": 9683,
  "허": 9684,
  "헌": 9685,
  "헤": 9686,
  "헨": 9687,
  "헬": 9688,
  "혀": 9689,
  "혁": 9690,
  "현": 9691,
  "혈": 9692,
  "협": 9693,
  "형": 9694,
  "혜": 9695,
  "호": 9696,
  "혹": 9697,
  "혼": 9698,
  "홉": 9699,
  "홍": 9700,
  "화": 9701,
  "확": 9702,
  "환": 9703,
  "활": 9704,
  "황": 9705,
  "회": 9706,
  "획": 9707,
  "횡": 9708,
  "효": 9709,
  "후": 9710,
  "훈": 9711,
  "훨": 9712,
  "휘": 9713,
  "휴": 9714,
  "흐": 9715,
  "흙": 9716,
  "흡": 9717,
  "흥": 9718,
  "희": 9719,
  "히": 9720,
  "힘": 9721,
  "": 9722,
  "": 9723,
  "": 9724,
  "": 9725,
  "": 9726,
  "": 9727,
  "": 9728,
  "": 9729,
  "": 9730,
  "": 9731,
  "": 9732,
  "": 9733,
  "": 9734,
  "": 9735,
  "": 9736,
  "": 9737,
  "": 9738,
  "": 9739,
  "": 9740,
  "": 9741,
  "": 9742,
  "": 9743,
  "": 9744,
  "": 9745,
  "": 9746,
  "": 9747,
  "": 9748,
  "": 9749,
  "": 9750,
  "": 9751,
  "": 9752,
  "": 9753,
  "": 9754,
  "": 9755,
  "": 9756,
  "": 9757,
  "": 9758,
  "": 9759,
  "": 9760,
  "": 9761,
  "": 9762,
  "": 9763,
  "": 9764,
  "": 9765,
  "": 9766,
  "": 9767,
  "": 9768,
  "": 9769,
  "": 9770,
  "": 9771,
  "": 9772,
  "": 9773,
  "": 9774,
  "": 9775,
  "": 9776,
  "": 9777,
  "": 9778,
  "": 9779,
  "": 9780,
  "": 9781,
  "": 9782,
  "": 9783,
  "": 9784,
  "": 9785,
  "": 9786,
  "": 9787,
  "": 9788,
  "": 9789,
  "": 9790,
  "": 9791,
  "": 9792,
  "": 9793,
  "": 9794,
  "": 9795,
  "": 9796,
  "": 9797,
  "": 9798,
  "": 9799,
  "": 9800,
  "": 9801,
  "": 9802,
  "": 9803,
  "": 9804,
  "": 9805,
  "": 9806,
  "": 9807,
  "": 9808,
  "": 9809,
  "": 9810,
  "": 9811,
  "": 9812,
  "": 9813,
  "": 9814,
  "": 9815,
  "": 9816,
  "": 9817,
  "": 9818,
  "": 9819,
  "": 9820,
  "": 9821,
  "": 9822,
  "": 9823,
  "": 9824,
  "": 9825,
  "": 9826,
  "": 9827,
  "": 9828,
  "": 9829,
  "": 9830,
  "": 9831,
  "": 9832,
  "": 9833,
  "": 9834,
  "": 9835,
  "": 9836,
  "": 9837,
  "": 9838,
  "": 9839,
  "": 9840,
  "": 9841,
  "": 9842,
  "": 9843,
  "": 9844,
  "": 9845,
  "": 9846,
  "": 9847,
  "": 9848,
  "": 9849,
  "": 9850,
  "": 9851,
  "": 9852,
  "": 9853,
  "": 9854,
  "": 9855,
  "": 9856,
  "": 9857,
  "": 9858,
  "": 9859,
  "": 9860,
  "": 9861,
  "": 9862,
  "": 9863,
  "": 9864,
  "": 9865,
  "": 9866,
  "": 9867,
  "": 9868,
  "": 9869,
  "": 9870,
  "": 9871,
  "": 9872,
  "": 9873,
  "": 9874,
  "": 9875,
  "": 9876,
  "": 9877,
  "": 9878,
  "": 9879,
  "": 9880,
  "": 9881,
  "": 9882,
  "": 9883,
  "": 9884,
  "": 9885,
  "": 9886,
  "": 9887,
  "": 9888,
  "": 9889,
  "": 9890,
  "": 9891,
  "": 9892,
  "": 9893,
  "": 9894,
  "": 9895,
  "": 9896,
  "": 9897,
  "": 9898,
  "": 9899,
  "": 9900,
  "": 9901,
  "": 9902,
  "": 9903,
  "": 9904,
  "": 9905,
  "": 9906,
  "": 9907,
  "": 9908,
  "": 9909,
  "": 9910,
  "": 9911,
  "": 9912,
  "": 9913,
  "": 9914,
  "": 9915,
  "": 9916,
  "": 9917,
  "": 9918,
  "": 9919,
  "": 9920,
  "": 9921,
  "": 9922,
  "": 9923,
  "": 9924,
  "": 9925,
  "": 9926,
  "": 9927,
  "": 9928,
  "": 9929,
  "": 9930,
  "": 9931,
  "": 9932,
  "": 9933,
  "": 9934,
  "": 9935,
  "": 9936,
  "": 9937,
  "": 9938,
  "": 9939,
  "": 9940,
  "": 9941,
  "": 9942,
  "": 9943,
  "": 9944,
  "": 9945,
  "": 9946,
  "": 9947,
  "": 9948,
  "": 9949,
  "": 9950,
  "": 9951,
  "": 9952,
  "": 9953,
  "": 9954,
  "": 9955,
  "": 9956,
  "": 9957,
  "": 9958,
  "": 9959,
  "": 9960,
  "": 9961,
  "": 9962,
  "": 9963,
  "": 9964,
  "": 9965,
  "": 9966,
  "": 9967,
  "": 9968,
  "": 9969,
  "": 9970,
  "": 9971,
  "": 9972,
  "": 9973,
  "": 9974,
  "": 9975,
  "": 9976,
  "": 9977,
  "": 9978,
  "": 9979,
  "": 9980,
  "": 9981,
  "": 9982,
  "": 9983,
  "": 9984,
  "": 9985,
  "": 9986,
  "": 9987,
  "": 9988,
  "": 9989,
  "": 9990,
  "": 9991,
  "": 9992,
  "": 9993,
  "": 9994,
  "": 9995,
  "": 9996,
  "": 9997,
  "": 9998,
  "": 9999,
  "": 10000,
  "": 10001,
  "": 10002,
  "": 10003,
  "": 10004,
  "": 10005,
  "": 10006,
  "": 10007,
  "": 10008,
  "": 10009,
  "": 10010,
  "": 10011,
  "": 10012,
  "": 10013,
  "": 10014,
  "": 10015,
  "": 10016,
  "": 10017,
  "": 10018,
  "": 10019,
  "": 10020,
  "": 10021,
  "": 10022,
  "": 10023,
  "": 10024,
  "": 10025,
  "": 10026,
  "": 10027,
  "": 10028,
  "": 10029,
  "": 10030,
  "": 10031,
  "": 10032,
  "": 10033,
  "": 10034,
  "": 10035,
  "": 10036,
  "": 10037,
  "": 10038,
  "": 10039,
  "": 10040,
  "": 10041,
  "": 10042,
  "": 10043,
  "": 10044,
  "": 10045,
  "": 10046,
  "": 10047,
  "": 10048,
  "": 10049,
  "": 10050,
  "": 10051,
  "": 10052,
  "": 10053,
  "": 10054,
  "": 10055,
  "": 10056,
  "": 10057,
  "": 10058,
  "": 10059,
  "": 10060,
  "": 10061,
  "": 10062,
  "": 10063,
  "": 10064,
  "": 10065,
  "": 10066,
  "": 10067,
  "": 10068,
  "": 10069,
  "": 10070,
  "": 10071,
  "": 10072,
  "": 10073,
  "": 10074,
  "": 10075,
  "": 10076,
  "": 10077,
  "": 10078,
  "": 10079,
  "": 10080,
  "": 10081,
  "": 10082,
  "": 10083,
  "": 10084,
  "": 10085,
  "": 10086,
  "": 10087,
  "": 10088,
  "": 10089,
  "": 10090,
  "": 10091,
  "": 10092,
  "": 10093,
  "": 10094,
  "": 10095,
  "": 10096,
  "": 10097,
  "": 10098,
  "": 10099,
  "": 10100,
  "": 10101,
  "": 10102,
  "": 10103,
  "": 10104,
  "": 10105,
  "": 10106,
  "": 10107,
  "": 10108,
  "": 10109,
  "": 10110,
  "": 10111,
  "": 10112,
  "": 10113,
  "": 10114,
  "": 10115,
  "": 10116,
  "": 10117,
  "": 10118,
  "": 10119,
  "": 10120,
  "": 10121,
  "": 10122,
  "": 10123,
  "": 10124,
  "": 10125,
  "": 10126,
  "": 10127,
  "": 10128,
  "": 10129,
  "": 10130,
  "": 10131,
  "": 10132,
  "": 10133,
  "": 10134,
  "": 10135,
  "": 10136,
  "": 10137,
  "": 10138,
  "": 10139,
  "": 10140,
  "": 10141,
  "": 10142,
  "": 10143,
  "": 10144,
  "": 10145,
  "": 10146,
  "": 10147,
  "": 10148,
  "": 10149,
  "": 10150,
  "": 10151,
  "": 10152,
  "": 10153,
  "": 10154,
  "": 10155,
  "": 10156,
  "": 10157,
  "": 10158,
  "": 10159,
  "": 10160,
  "": 10161,
  "": 10162,
  "": 10163,
  "": 10164,
  "": 10165,
  "": 10166,
  "": 10167,
  "": 10168,
  "": 10169,
  "": 10170,
  "": 10171,
  "": 10172,
  "": 10173,
  "": 10174,
  "": 10175,
  "": 10176,
  "": 10177,
  "": 10178,
  "": 10179,
  "": 10180,
  "": 10181,
  "": 10182,
  "": 10183,
  "": 10184,
  "": 10185,
  "": 10186,
  "": 10187,
  "": 10188,
  "": 10189,
  "": 10190,
  "": 10191,
  "": 10192,
  "": 10193,
  "": 10194,
  "": 10195,
  "": 10196,
  "": 10197,
  "": 10198,
  "": 10199,
  "": 10200,
  "": 10201,
  "": 10202,
  "": 10203,
  "": 10204,
  "": 10205,
  "": 10206,
  "": 10207,
  "": 10208,
  "": 10209,
  "": 10210,
  "": 10211,
  "": 10212,
  "ﬀ": 10213,
  "ﬁ": 10214,
  "ﬂ": 10215,
  "﬩": 10216,
  "ﮔ": 10217,
  "﮼": 10218,
  "ﳿ": 10219,
  "﴾": 10220,
  "﴿": 10221,
  "﷓": 10222,
  "ﷲ": 10223,
  "ﷺ": 10224,
  "﷼": 10225,
  "︎": 10226,
  "️": 10227,
  "︙": 10228,
  "︠": 10229,
  "︡": 10230,
  "︱": 10231,
  "﹀": 10232,
  "﹒": 10233,
  "﹣": 10234,
  "﹥": 10235,
  "ﹲ": 10236,
  "ﹶ": 10237,
  "ﹸ": 10238,
  "ﹾ": 10239,
  "ﺍ": 10240,
  "ﺎ": 10241,
  "ﺏ": 10242,
  "ﺕ": 10243,
  "ﺙ": 10244,
  "ﺝ": 10245,
  "ﺡ": 10246,
  "ﺥ": 10247,
  "ﺩ": 10248,
  "ﺫ": 10249,
  "ﺭ": 10250,
  "ﺯ": 10251,
  "ﺱ": 10252,
  "ﺵ": 10253,
  "ﺹ": 10254,
  "ﺽ": 10255,
  "ﻁ": 10256,
  "ﻅ": 10257,
  "ﻉ": 10258,
  "ﻌ": 10259,
  "ﻍ": 10260,
  "ﻑ": 10261,
  "ﻕ": 10262,
  "ﻙ": 10263,
  "ﻝ": 10264,
  "ﻡ": 10265,
  "ﻥ": 10266,
  "ﻩ": 10267,
  "ﻫ": 10268,
  "ﻭ": 10269,
  "ﻻ": 10270,
  "﻿": 10271,
  "！": 10272,
  "＂": 10273,
  "＃": 10274,
  "＄": 10275,
  "％": 10276,
  "＆": 10277,
  "（": 10278,
  "）": 10279,
  "＊": 10280,
  "＋": 10281,
  "，": 10282,
  "－": 10283,
  "．": 10284,
  "／": 10285,
  "０": 10286,
  "１": 10287,
  "２": 10288,
  "３": 10289,
  "４": 10290,
  "５": 10291,
  "６": 10292,
  "７": 10293,
  "８": 10294,
  "９": 10295,
  "：": 10296,
  "；": 10297,
  "＜": 10298,
  "＞": 10299,
  "？": 10300,
  "＠": 10301,
  "Ａ": 10302,
  "Ｆ": 10303,
  "Ｇ": 10304,
  "Ｉ": 10305,
  "Ｊ": 10306,
  "Ｋ": 10307,
  "Ｍ": 10308,
  "Ｎ": 10309,
  "Ｏ": 10310,
  "Ｐ": 10311,
  "Ｒ": 10312,
  "Ｓ": 10313,
  "Ｔ": 10314,
  "［": 10315,
  "＼": 10316,
  "］": 10317,
  "ａ": 10318,
  "ｃ": 10319,
  "ｄ": 10320,
  "ｅ": 10321,
  "ｆ": 10322,
  "ｈ": 10323,
  "ｉ": 10324,
  "ｌ": 10325,
  "ｍ": 10326,
  "ｎ": 10327,
  "ｏ": 10328,
  "ｐ": 10329,
  "ｒ": 10330,
  "ｓ": 10331,
  "ｔ": 10332,
  "ｕ": 10333,
  "ｖ": 10334,
  "ｗ": 10335,
  "ｘ": 10336,
  "｛": 10337,
  "｜": 10338,
  "｝": 10339,
  "～": 10340,
  "｡": 10341,
  "･": 10342,
  "ｭ": 10343,
  "ｮ": 10344,
  "ｲ": 10345,
  "ｵ": 10346,
  "ｷ": 10347,
  "ｼ": 10348,
  "ﾀ": 10349,
  "ﾁ": 10350,
  "ﾂ": 10351,
  "ﾉ": 10352,
  "ﾍ": 10353,
  "ﾓ": 10354,
  "ﾗ": 10355,
  "ﾘ": 10356,
  "ﾛ": 10357,
  "ﾝ": 10358,
  "ﾞ": 10359,
  "ﾟ": 10360,
  "ﾰ": 10361,
  "ﾵ": 10362,
  "ﾸ": 10363,
  "￣": 10364,
  "￭": 10365,
  "￼": 10366,
  "�": 10367,
  "￾": 10368,
  "𐆔": 10369,
  "𐌅": 10370,
  "𐌠": 10371,
  "𐌰": 10372,
  "𐌲": 10373,
  "𐌴": 10374,
  "𐌸": 10375,
  "𐌹": 10376,
  "𐌺": 10377,
  "𐌻": 10378,
  "𐌼": 10379,
  "𐌽": 10380,
  "𐌿": 10381,
  "𐍂": 10382,
  "𐍃": 10383,
  "𐍅": 10384,
  "𐍆": 10385,
  "𐒈": 10386,
  "𐒐": 10387,
  "𐒑": 10388,
  "𐒒": 10389,
  "𐒓": 10390,
  "𐒕": 10391,
  "𐒗": 10392,
  "𐒘": 10393,
  "𐒛": 10394,
  "𐒝": 10395,
  "𐤑": 10396,
  "𑱁": 10397,
  "𒀀": 10398,
  "𒀭": 10399,
  "𒃾": 10400,
  "𒄿": 10401,
  "𒅆": 10402,
  "𒆍": 10403,
  "𒆠": 10404,
  "𒆳": 10405,
  "𒇷": 10406,
  "𒉈": 10407,
  "𒉿": 10408,
  "𒊏": 10409,
  "𓅓": 10410,
  "𓆎": 10411,
  "𓊖": 10412,
  "𓏏": 10413,
  "𖤐": 10414,
  "𝄂": 10415,
  "𝄞": 10416,
  "𝐀": 10417,
  "𝐁": 10418,
  "𝐂": 10419,
  "𝐃": 10420,
  "𝐄": 10421,
  "𝐅": 10422,
  "𝐆": 10423,
  "𝐇": 10424,
  "𝐈": 10425,
  "𝐉": 10426,
  "𝐊": 10427,
  "𝐋": 10428,
  "𝐌": 10429,
  "𝐍": 10430,
  "𝐎": 10431,
  "𝐏": 10432,
  "𝐑": 10433,
  "𝐒": 10434,
  "𝐓": 10435,
  "𝐔": 10436,
  "𝐕": 10437,
  "𝐖": 10438,
  "𝐗": 10439,
  "𝐘": 10440,
  "𝐚": 10441,
  "𝐛": 10442,
  "𝐜": 10443,
  "𝐝": 10444,
  "𝐞": 10445,
  "𝐟": 10446,
  "𝐠": 10447,
  "𝐡": 10448,
  "𝐢": 10449,
  "𝐤": 10450,
  "𝐥": 10451,
  "𝐦": 10452,
  "𝐧": 10453,
  "𝐨": 10454,
  "𝐩": 10455,
  "𝐫": 10456,
  "𝐬": 10457,
  "𝐭": 10458,
  "𝐮": 10459,
  "𝐯": 10460,
  "𝐰": 10461,
  "𝐲": 10462,
  "𝐴": 10463,
  "𝐸": 10464,
  "𝐼": 10465,
  "𝐾": 10466,
  "𝑀": 10467,
  "𝑃": 10468,
  "𝑅": 10469,
  "𝑆": 10470,
  "𝑈": 10471,
  "𝑉": 10472,
  "𝑏": 10473,
  "𝑒": 10474,
  "𝑓": 10475,
  "𝑔": 10476,
  "𝑘": 10477,
  "𝑙": 10478,
  "𝑚": 10479,
  "𝑛": 10480,
  "𝑜": 10481,
  "𝑝": 10482,
  "𝑞": 10483,
  "𝑟": 10484,
  "𝑡": 10485,
  "𝑢": 10486,
  "𝑣": 10487,
  "𝑦": 10488,
  "𝑨": 10489,
  "𝑩": 10490,
  "𝑶": 10491,
  "𝒉": 10492,
  "𝒊": 10493,
  "𝒌": 10494,
  "𝒏": 10495,
  "𝒓": 10496,
  "𝒔": 10497,
  "𝒕": 10498,
  "𝒙": 10499,
  "𝒦": 10500,
  "𝒩": 10501,
  "𝒫": 10502,
  "𝒮": 10503,
  "𝒱": 10504,
  "𝒲": 10505,
  "𝒶": 10506,
  "𝒹": 10507,
  "𝒽": 10508,
  "𝒾": 10509,
  "𝓀": 10510,
  "𝓁": 10511,
  "𝓂": 10512,
  "𝓃": 10513,
  "𝓇": 10514,
  "𝓈": 10515,
  "𝓉": 10516,
  "𝓊": 10517,
  "𝓎": 10518,
  "𝓑": 10519,
  "𝓒": 10520,
  "𝓓": 10521,
  "𝓔": 10522,
  "𝓕": 10523,
  "𝓖": 10524,
  "𝓗": 10525,
  "𝓚": 10526,
  "𝓝": 10527,
  "𝓞": 10528,
  "𝓢": 10529,
  "𝓥": 10530,
  "𝓪": 10531,
  "𝓭": 10532,
  "𝓮": 10533,
  "𝓰": 10534,
  "𝓱": 10535,
  "𝓲": 10536,
  "𝓴": 10537,
  "𝓵": 10538,
  "𝓶": 10539,
  "𝓷": 10540,
  "𝓸": 10541,
  "𝓻": 10542,
  "𝓼": 10543,
  "𝓽": 10544,
  "𝓾": 10545,
  "𝓿": 10546,
  "𝔇": 10547,
  "𝔒": 10548,
  "𝔖": 10549,
  "𝔗": 10550,
  "𝔞": 10551,
  "𝔠": 10552,
  "𝔡": 10553,
  "𝔢": 10554,
  "𝔤": 10555,
  "𝔥": 10556,
  "𝔦": 10557,
  "𝔩": 10558,
  "𝔫": 10559,
  "𝔬": 10560,
  "𝔯": 10561,
  "𝔰": 10562,
  "𝔱": 10563,
  "𝔲": 10564,
  "𝔸": 10565,
  "𝔼": 10566,
  "𝕁": 10567,
  "𝕄": 10568,
  "𝕆": 10569,
  "𝕊": 10570,
  "𝕐": 10571,
  "𝕕": 10572,
  "𝕖": 10573,
  "𝕘": 10574,
  "𝕚": 10575,
  "𝕝": 10576,
  "𝕟": 10577,
  "𝕠": 10578,
  "𝕣": 10579,
  "𝕤": 10580,
  "𝕦": 10581,
  "𝕮": 10582,
  "𝕯": 10583,
  "𝕱": 10584,
  "𝕷": 10585,
  "𝕸": 10586,
  "𝕻": 10587,
  "𝕿": 10588,
  "𝖆": 10589,
  "𝖈": 10590,
  "𝖉": 10591,
  "𝖊": 10592,
  "𝖌": 10593,
  "𝖎": 10594,
  "𝖑": 10595,
  "𝖓": 10596,
  "𝖔": 10597,
  "𝖗": 10598,
  "𝖙": 10599,
  "𝖚": 10600,
  "𝖞": 10601,
  "𝖟": 10602,
  "𝗔": 10603,
  "𝗕": 10604,
  "𝗖": 10605,
  "𝗗": 10606,
  "𝗘": 10607,
  "𝗙": 10608,
  "𝗚": 10609,
  "𝗛": 10610,
  "𝗜": 10611,
  "𝗝": 10612,
  "𝗞": 10613,
  "𝗟": 10614,
  "𝗠": 10615,
  "𝗡": 10616,
  "𝗢": 10617,
  "𝗣": 10618,
  "𝗥": 10619,
  "𝗦": 10620,
  "𝗧": 10621,
  "𝗨": 10622,
  "𝗩": 10623,
  "𝗪": 10624,
  "𝗫": 10625,
  "𝗬": 10626,
  "𝗭": 10627,
  "𝗮": 10628,
  "𝗯": 10629,
  "𝗰": 10630,
  "𝗱": 10631,
  "𝗲": 10632,
  "𝗳": 10633,
  "𝗴": 10634,
  "𝗵": 10635,
  "𝗶": 10636,
  "𝗷": 10637,
  "𝗸": 10638,
  "𝗹": 10639,
  "𝗺": 10640,
  "𝗻": 10641,
  "𝗼": 10642,
  "𝗽": 10643,
  "𝗿": 10644,
  "𝘀": 10645,
  "𝘁": 10646,
  "𝘂": 10647,
  "𝘃": 10648,
  "𝘄": 10649,
  "𝘅": 10650,
  "𝘆": 10651,
  "𝘇": 10652,
  "𝘎": 10653,
  "𝘛": 10654,
  "𝘢": 10655,
  "𝘤": 10656,
  "𝘦": 10657,
  "𝘧": 10658,
  "𝘩": 10659,
  "𝘪": 10660,
  "𝘭": 10661,
  "𝘮": 10662,
  "𝘯": 10663,
  "𝘰": 10664,
  "𝘱": 10665,
  "𝘴": 10666,
  "𝘵": 10667,
  "𝘷": 10668,
  "𝘹": 10669,
  "𝘺": 10670,
  "𝘼": 10671,
  "𝘽": 10672,
  "𝘾": 10673,
  "𝘿": 10674,
  "𝙀": 10675,
  "𝙁": 10676,
  "𝙂": 10677,
  "𝙃": 10678,
  "𝙄": 10679,
  "𝙅": 10680,
  "𝙇": 10681,
  "𝙈": 10682,
  "𝙉": 10683,
  "𝙊": 10684,
  "𝙋": 10685,
  "𝙍": 10686,
  "𝙎": 10687,
  "𝙏": 10688,
  "𝙐": 10689,
  "𝙒": 10690,
  "𝙔": 10691,
  "𝙖": 10692,
  "𝙘": 10693,
  "𝙙": 10694,
  "𝙚": 10695,
  "𝙛": 10696,
  "𝙜": 10697,
  "𝙝": 10698,
  "𝙞": 10699,
  "𝙠": 10700,
  "𝙡": 10701,
  "𝙢": 10702,
  "𝙣": 10703,
  "𝙤": 10704,
  "𝙧": 10705,
  "𝙨": 10706,
  "𝙩": 10707,
  "𝙪": 10708,
  "𝙫": 10709,
  "𝙬": 10710,
  "𝙮": 10711,
  "𝙽": 10712,
  "𝚊": 10713,
  "𝚎": 10714,
  "𝚐": 10715,
  "𝚕": 10716,
  "𝚗": 10717,
  "𝚘": 10718,
  "𝚜": 10719,
  "𝚝": 10720,
  "𝛥": 10721,
  "𝛼": 10722,
  "𝛾": 10723,
  "𝛿": 10724,
  "𝜈": 10725,
  "𝝅": 10726,
  "𝟎": 10727,
  "𝟏": 10728,
  "𝟐": 10729,
  "𝟑": 10730,
  "𝟒": 10731,
  "𝟓": 10732,
  "𝟔": 10733,
  "𝟕": 10734,
  "𝟖": 10735,
  "𝟗": 10736,
  "𝟘": 10737,
  "𝟛": 10738,
  "𝟬": 10739,
  "𝟭": 10740,
  "𝟮": 10741,
  "𝟯": 10742,
  "𝟰": 10743,
  "𝟱": 10744,
  "𝟲": 10745,
  "𝟳": 10746,
  "𝟴": 10747,
  "𝟵": 10748,
  "𞤃": 10749,
  "𞤈": 10750,
  "𞤢": 10751,
  "𞤣": 10752,
  "𞤤": 10753,
  "𞤫": 10754,
  "𞤭": 10755,
  "𞤲": 10756,
  "🀄": 10757,
  "🀟": 10758,
  "🀧": 10759,
  "🀩": 10760,
  "🂡": 10761,
  "🃏": 10762,
  "🄳": 10763,
  "🄴": 10764,
  "🄶": 10765,
  "🄸": 10766,
  "🄻": 10767,
  "🄽": 10768,
  "🄾": 10769,
  "🅁": 10770,
  "🅂": 10771,
  "🅄": 10772,
  "🅉": 10773,
  "🅔": 10774,
  "🅘": 10775,
  "🅞": 10776,
  "🅟": 10777,
  "🅡": 10778,
  "🅣": 10779,
  "🅰": 10780,
  "🅱": 10781,
  "🅲": 10782,
  "🅳": 10783,
  "🅴": 10784,
  "🅶": 10785,
  "🅷": 10786,
  "🅸": 10787,
  "🅺": 10788,
  "🅻": 10789,
  "🅼": 10790,
  "🅽": 10791,
  "🅾": 10792,
  "🅿": 10793,
  "🆁": 10794,
  "🆂": 10795,
  "🆃": 10796,
  "🆄": 10797,
  "🆎": 10798,
  "🆓": 10799,
  "🆔": 10800,
  "🆕": 10801,
  "🆗": 10802,
  "🆘": 10803,
  "🆙": 10804,
  "🆚": 10805,
  "🇦": 10806,
  "🇧": 10807,
  "🇨": 10808,
  "🇩": 10809,
  "🇪": 10810,
  "🇫": 10811,
  "🇬": 10812,
  "🇭": 10813,
  "🇮": 10814,
  "🇯": 10815,
  "🇰": 10816,
  "🇱": 10817,
  "🇲": 10818,
  "🇳": 10819,
  "🇴": 10820,
  "🇵": 10821,
  "🇶": 10822,
  "🇷": 10823,
  "🇸": 10824,
  "🇹": 10825,
  "🇺": 10826,
  "🇻": 10827,
  "🇼": 10828,
  "🇽": 10829,
  "🇾": 10830,
  "🇿": 10831,
  "🈁": 10832,
  "🌀": 10833,
  "🌁": 10834,
  "🌂": 10835,
  "🌃": 10836,
  "🌄": 10837,
  "🌅": 10838,
  "🌆": 10839,
  "🌇": 10840,
  "🌈": 10841,
  "🌉": 10842,
  "🌊": 10843,
  "🌋": 10844,
  "🌌": 10845,
  "🌍": 10846,
  "🌎": 10847,
  "🌏": 10848,
  "🌐": 10849,
  "🌑": 10850,
  "🌒": 10851,
  "🌓": 10852,
  "🌔": 10853,
  "🌕": 10854,
  "🌖": 10855,
  "🌗": 10856,
  "🌘": 10857,
  "🌙": 10858,
  "🌚": 10859,
  "🌛": 10860,
  "🌜": 10861,
  "🌝": 10862,
  "🌞": 10863,
  "🌟": 10864,
  "🌠": 10865,
  "🌡": 10866,
  "🌢": 10867,
  "🌤": 10868,
  "🌥": 10869,
  "🌦": 10870,
  "🌧": 10871,
  "🌨": 10872,
  "🌩": 10873,
  "🌪": 10874,
  "🌫": 10875,
  "🌬": 10876,
  "🌭": 10877,
  "🌮": 10878,
  "🌯": 10879,
  "🌰": 10880,
  "🌱": 10881,
  "🌲": 10882,
  "🌳": 10883,
  "🌴": 10884,
  "🌵": 10885,
  "🌶": 10886,
  "🌷": 10887,
  "🌸": 10888,
  "🌹": 10889,
  "🌺": 10890,
  "🌻": 10891,
  "🌼": 10892,
  "🌽": 10893,
  "🌾": 10894,
  "🌿": 10895,
  "🍀": 10896,
  "🍁": 10897,
  "🍂": 10898,
  "🍃": 10899,
  "🍄": 10900,
  "🍅": 10901,
  "🍆": 10902,
  "🍇": 10903,
  "🍈": 10904,
  "🍉": 10905,
  "🍊": 10906,
  "🍋": 10907,
  "🍌": 10908,
  "🍍": 10909,
  "🍎": 10910,
  "🍏": 10911,
  "🍐": 10912,
  "🍑": 10913,
  "🍒": 10914,
  "🍓": 10915,
  "🍔": 10916,
  "🍕": 10917,
  "🍖": 10918,
  "🍗": 10919,
  "🍚": 10920,
  "🍛": 10921,
  "🍜": 10922,
  "🍝": 10923,
  "🍞": 10924,
  "🍟": 10925,
  "🍠": 10926,
  "🍡": 10927,
  "🍢": 10928,
  "🍣": 10929,
  "🍤": 10930,
  "🍥": 10931,
  "🍦": 10932,
  "🍧": 10933,
  "🍨": 10934,
  "🍩": 10935,
  "🍪": 10936,
  "🍫": 10937,
  "🍬": 10938,
  "🍭": 10939,
  "🍮": 10940,
  "🍯": 10941,
  "🍰": 10942,
  "🍱": 10943,
  "🍲": 10944,
  "🍳": 10945,
  "🍴": 10946,
  "🍵": 10947,
  "🍶": 10948,
  "🍷": 10949,
  "🍸": 10950,
  "🍹": 10951,
  "🍺": 10952,
  "🍻": 10953,
  "🍼": 10954,
  "🍽": 10955,
  "🍾": 10956,
  "🍿": 10957,
  "🎀": 10958,
  "🎁": 10959,
  "🎂": 10960,
  "🎃": 10961,
  "🎄": 10962,
  "🎅": 10963,
  "🎆": 10964,
  "🎇": 10965,
  "🎈": 10966,
  "🎉": 10967,
  "🎊": 10968,
  "🎋": 10969,
  "🎌": 10970,
  "🎍": 10971,
  "🎎": 10972,
  "🎏": 10973,
  "🎐": 10974,
  "🎑": 10975,
  "🎒": 10976,
  "🎓": 10977,
  "🎖": 10978,
  "🎗": 10979,
  "🎙": 10980,
  "🎚": 10981,
  "🎛": 10982,
  "🎞": 10983,
  "🎟": 10984,
  "🎠": 10985,
  "🎡": 10986,
  "🎢": 10987,
  "🎣": 10988,
  "🎤": 10989,
  "🎥": 10990,
  "🎦": 10991,
  "🎧": 10992,
  "🎨": 10993,
  "🎩": 10994,
  "🎪": 10995,
  "🎫": 10996,
  "🎬": 10997,
  "🎭": 10998,
  "🎮": 10999,
  "🎯": 11000,
  "🎰": 11001,
  "🎱": 11002,
  "🎲": 11003,
  "🎳": 11004,
  "🎴": 11005,
  "🎵": 11006,
  "🎶": 11007,
  "🎷": 11008,
  "🎸": 11009,
  "🎹": 11010,
  "🎺": 11011,
  "🎻": 11012,
  "🎼": 11013,
  "🎾": 11014,
  "🎿": 11015,
  "🏀": 11016,
  "🏁": 11017,
  "🏂": 11018,
  "🏃": 11019,
  "🏄": 11020,
  "🏅": 11021,
  "🏆": 11022,
  "🏇": 11023,
  "🏈": 11024,
  "🏉": 11025,
  "🏊": 11026,
  "🏋": 11027,
  "🏌": 11028,
  "🏍": 11029,
  "🏎": 11030,
  "🏏": 11031,
  "🏐": 11032,
  "🏒": 11033,
  "🏓": 11034,
  "🏔": 11035,
  "🏕": 11036,
  "🏖": 11037,
  "🏗": 11038,
  "🏘": 11039,
  "🏙": 11040,
  "🏚": 11041,
  "🏛": 11042,
  "🏜": 11043,
  "🏝": 11044,
  "🏞": 11045,
  "🏟": 11046,
  "🏠": 11047,
  "🏡": 11048,
  "🏢": 11049,
  "🏣": 11050,
  "🏤": 11051,
  "🏥": 11052,
  "🏦": 11053,
  "🏧": 11054,
  "🏨": 11055,
  "🏩": 11056,
  "🏪": 11057,
  "🏫": 11058,
  "🏬": 11059,
  "🏭": 11060,
  "🏮": 11061,
  "🏯": 11062,
  "🏰": 11063,
  "🏳": 11064,
  "🏴": 11065,
  "🏵": 11066,
  "🏷": 11067,
  "🏸": 11068,
  "🏹": 11069,
  "🏺": 11070,
  "🏻": 11071,
  "🏼": 11072,
  "🏽": 11073,
  "🏾": 11074,
  "🏿": 11075,
  "🐀": 11076,
  "🐁": 11077,
  "🐂": 11078,
  "🐃": 11079,
  "🐄": 11080,
  "🐅": 11081,
  "🐆": 11082,
  "🐇": 11083,
  "🐈": 11084,
  "🐉": 11085,
  "🐊": 11086,
  "🐋": 11087,
  "🐌": 11088,
  "🐍": 11089,
  "🐎": 11090,
  "🐏": 11091,
  "🐐": 11092,
  "🐑": 11093,
  "🐒": 11094,
  "🐓": 11095,
  "🐔": 11096,
  "🐕": 11097,
  "🐖": 11098,
  "🐗": 11099,
  "🐘": 11100,
  "🐙": 11101,
  "🐚": 11102,
  "🐛": 11103,
  "🐜": 11104,
  "🐝": 11105,
  "🐞": 11106,
  "🐟": 11107,
  "🐠": 11108,
  "🐡": 11109,
  "🐢": 11110,
  "🐣": 11111,
  "🐤": 11112,
  "🐥": 11113,
  "🐦": 11114,
  "🐧": 11115,
  "🐨": 11116,
  "🐩": 11117,
  "🐪": 11118,
  "🐫": 11119,
  "🐬": 11120,
  "🐭": 11121,
  "🐮": 11122,
  "🐯": 11123,
  "🐰": 11124,
  "🐱": 11125,
  "🐲": 11126,
  "🐳": 11127,
  "🐴": 11128,
  "🐵": 11129,
  "🐶": 11130,
  "🐷": 11131,
  "🐸": 11132,
  "🐹": 11133,
  "🐺": 11134,
  "🐻": 11135,
  "🐼": 11136,
  "🐽": 11137,
  "🐾": 11138,
  "🐿": 11139,
  "👀": 11140,
  "👁": 11141,
  "👂": 11142,
  "👃": 11143,
  "👄": 11144,
  "👅": 11145,
  "👆": 11146,
  "👇": 11147,
  "👈": 11148,
  "👉": 11149,
  "👊": 11150,
  "👋": 11151,
  "👌": 11152,
  "👍": 11153,
  "👎": 11154,
  "👏": 11155,
  "👐": 11156,
  "👑": 11157,
  "👒": 11158,
  "👓": 11159,
  "👔": 11160,
  "👕": 11161,
  "👖": 11162,
  "👗": 11163,
  "👙": 11164,
  "👚": 11165,
  "👛": 11166,
  "👜": 11167,
  "👝": 11168,
  "👞": 11169,
  "👟": 11170,
  "👠": 11171,
  "👡": 11172,
  "👢": 11173,
  "👣": 11174,
  "👤": 11175,
  "👥": 11176,
  "👦": 11177,
  "👧": 11178,
  "👨": 11179,
  "👩": 11180,
  "👪": 11181,
  "👫": 11182,
  "👬": 11183,
  "👭": 11184,
  "👮": 11185,
  "👯": 11186,
  "👰": 11187,
  "👱": 11188,
  "👲": 11189,
  "👳": 11190,
  "👴": 11191,
  "👵": 11192,
  "👶": 11193,
  "👷": 11194,
  "👸": 11195,
  "👹": 11196,
  "👺": 11197,
  "👻": 11198,
  "👼": 11199,
  "👽": 11200,
  "👾": 11201,
  "👿": 11202,
  "💀": 11203,
  "💁": 11204,
  "💂": 11205,
  "💃": 11206,
  "💄": 11207,
  "💅": 11208,
  "💆": 11209,
  "💇": 11210,
  "💈": 11211,
  "💉": 11212,
  "💊": 11213,
  "💋": 11214,
  "💌": 11215,
  "💍": 11216,
  "💎": 11217,
  "💏": 11218,
  "💐": 11219,
  "💑": 11220,
  "💒": 11221,
  "💓": 11222,
  "💔": 11223,
  "💕": 11224,
  "💖": 11225,
  "💗": 11226,
  "💘": 11227,
  "💙": 11228,
  "💚": 11229,
  "💛": 11230,
  "💜": 11231,
  "💝": 11232,
  "💞": 11233,
  "💟": 11234,
  "💠": 11235,
  "💡": 11236,
  "💢": 11237,
  "💣": 11238,
  "💤": 11239,
  "💥": 11240,
  "💦": 11241,
  "💧": 11242,
  "💨": 11243,
  "💩": 11244,
  "💪": 11245,
  "💫": 11246,
  "💬": 11247,
  "💭": 11248,
  "💮": 11249,
  "💯": 11250,
  "💰": 11251,
  "💱": 11252,
  "💲": 11253,
  "💳": 11254,
  "💴": 11255,
  "💵": 11256,
  "💶": 11257,
  "💷": 11258,
  "💸": 11259,
  "💹": 11260,
  "💺": 11261,
  "💻": 11262,
  "💼": 11263,
  "💽": 11264,
  "💾": 11265,
  "💿": 11266,
  "📀": 11267,
  "📁": 11268,
  "📂": 11269,
  "📃": 11270,
  "📄": 11271,
  "📅": 11272,
  "📆": 11273,
  "📇": 11274,
  "📈": 11275,
  "📉": 11276,
  "📊": 11277,
  "📋": 11278,
  "📌": 11279,
  "📍": 11280,
  "📎": 11281,
  "📏": 11282,
  "📐": 11283,
  "📑": 11284,
  "📒": 11285,
  "📓": 11286,
  "📔": 11287,
  "📕": 11288,
  "📖": 11289,
  "📗": 11290,
  "📘": 11291,
  "📙": 11292,
  "📚": 11293,
  "📛": 11294,
  "📜": 11295,
  "📝": 11296,
  "📞": 11297,
  "📟": 11298,
  "📠": 11299,
  "📡": 11300,
  "📢": 11301,
  "📣": 11302,
  "📤": 11303,
  "📥": 11304,
  "📦": 11305,
  "📧": 11306,
  "📨": 11307,
  "📩": 11308,
  "📪": 11309,
  "📫": 11310,
  "📬": 11311,
  "📭": 11312,
  "📮": 11313,
  "📯": 11314,
  "📰": 11315,
  "📱": 11316,
  "📲": 11317,
  "📳": 11318,
  "📵": 11319,
  "📶": 11320,
  "📷": 11321,
  "📸": 11322,
  "📹": 11323,
  "📺": 11324,
  "📻": 11325,
  "📼": 11326,
  "📽": 11327,
  "📿": 11328,
  "🔀": 11329,
  "🔁": 11330,
  "🔃": 11331,
  "🔄": 11332,
  "🔅": 11333,
  "🔆": 11334,
  "🔇": 11335,
  "🔈": 11336,
  "🔉": 11337,
  "🔊": 11338,
  "🔋": 11339,
  "🔌": 11340,
  "🔍": 11341,
  "🔎": 11342,
  "🔏": 11343,
  "🔐": 11344,
  "🔑": 11345,
  "🔒": 11346,
  "🔓": 11347,
  "🔔": 11348,
  "🔖": 11349,
  "🔗": 11350,
  "🔘": 11351,
  "🔙": 11352,
  "🔛": 11353,
  "🔜": 11354,
  "🔝": 11355,
  "🔞": 11356,
  "🔟": 11357,
  "🔢": 11358,
  "🔤": 11359,
  "🔥": 11360,
  "🔦": 11361,
  "🔧": 11362,
  "🔨": 11363,
  "🔩": 11364,
  "🔪": 11365,
  "🔫": 11366,
  "🔬": 11367,
  "🔭": 11368,
  "🔮": 11369,
  "🔯": 11370,
  "🔰": 11371,
  "🔱": 11372,
  "🔲": 11373,
  "🔳": 11374,
  "🔴": 11375,
  "🔵": 11376,
  "🔶": 11377,
  "🔷": 11378,
  "🔸": 11379,
  "🔹": 11380,
  "🔺": 11381,
  "🔻": 11382,
  "🔼": 11383,
  "🔽": 11384,
  "🕉": 11385,
  "🕊": 11386,
  "🕋": 11387,
  "🕌": 11388,
  "🕍": 11389,
  "🕎": 11390,
  "🕐": 11391,
  "🕑": 11392,
  "🕒": 11393,
  "🕓": 11394,
  "🕔": 11395,
  "🕕": 11396,
  "🕖": 11397,
  "🕗": 11398,
  "🕘": 11399,
  "🕙": 11400,
  "🕚": 11401,
  "🕛": 11402,
  "🕜": 11403,
  "🕞": 11404,
  "🕟": 11405,
  "🕠": 11406,
  "🕡": 11407,
  "🕢": 11408,
  "🕣": 11409,
  "🕥": 11410,
  "🕦": 11411,
  "🕯": 11412,
  "🕰": 11413,
  "🕳": 11414,
  "🕴": 11415,
  "🕵": 11416,
  "🕶": 11417,
  "🕷": 11418,
  "🕸": 11419,
  "🕹": 11420,
  "🕺": 11421,
  "🖂": 11422,
  "🖇": 11423,
  "🖊": 11424,
  "🖋": 11425,
  "🖌": 11426,
  "🖍": 11427,
  "🖐": 11428,
  "🖒": 11429,
  "🖕": 11430,
  "🖖": 11431,
  "🖤": 11432,
  "🖥": 11433,
  "🖨": 11434,
  "🖱": 11435,
  "🖼": 11436,
  "🖾": 11437,
  "🗂": 11438,
  "🗃": 11439,
  "🗄": 11440,
  "🗇": 11441,
  "🗊": 11442,
  "🗎": 11443,
  "🗑": 11444,
  "🗒": 11445,
  "🗓": 11446,
  "🗜": 11447,
  "🗝": 11448,
  "🗞": 11449,
  "🗡": 11450,
  "🗣": 11451,
  "🗨": 11452,
  "🗯": 11453,
  "🗳": 11454,
  "🗸": 11455,
  "🗺": 11456,
  "🗻": 11457,
  "🗼": 11458,
  "🗽": 11459,
  "🗾": 11460,
  "🗿": 11461,
  "😀": 11462,
  "😁": 11463,
  "😂": 11464,
  "😃": 11465,
  "😄": 11466,
  "😅": 11467,
  "😆": 11468,
  "😇": 11469,
  "😈": 11470,
  "😉": 11471,
  "😊": 11472,
  "😋": 11473,
  "😌": 11474,
  "😍": 11475,
  "😎": 11476,
  "😏": 11477,
  "😐": 11478,
  "😑": 11479,
  "😒": 11480,
  "😓": 11481,
  "😔": 11482,
  "😕": 11483,
  "😖": 11484,
  "😗": 11485,
  "😘": 11486,
  "😙": 11487,
  "😚": 11488,
  "😛": 11489,
  "😜": 11490,
  "😝": 11491,
  "😞": 11492,
  "😟": 11493,
  "😠": 11494,
  "😡": 11495,
  "😢": 11496,
  "😣": 11497,
  "😤": 11498,
  "😥": 11499,
  "😦": 11500,
  "😧": 11501,
  "😨": 11502,
  "😩": 11503,
  "😪": 11504,
  "😫": 11505,
  "😬": 11506,
  "😭": 11507,
  "😮": 11508,
  "😯": 11509,
  "😰": 11510,
  "😱": 11511,
  "😲": 11512,
  "😳": 11513,
  "😴": 11514,
  "😵": 11515,
  "😶": 11516,
  "😷": 11517,
  "😸": 11518,
  "😹": 11519,
  "😺": 11520,
  "😻": 11521,
  "😼": 11522,
  "😽": 11523,
  "😾": 11524,
  "😿": 11525,
  "🙀": 11526,
  "🙁": 11527,
  "🙂": 11528,
  "🙃": 11529,
  "🙄": 11530,
  "🙅": 11531,
  "🙆": 11532,
  "🙇": 11533,
  "🙈": 11534,
  "🙉": 11535,
  "🙊": 11536,
  "🙋": 11537,
  "🙌": 11538,
  "🙍": 11539,
  "🙎": 11540,
  "🙏": 11541,
  "🙸": 11542,
  "🚀": 11543,
  "🚁": 11544,
  "🚂": 11545,
  "🚃": 11546,
  "🚄": 11547,
  "🚅": 11548,
  "🚆": 11549,
  "🚇": 11550,
  "🚈": 11551,
  "🚉": 11552,
  "🚊": 11553,
  "🚋": 11554,
  "🚌": 11555,
  "🚍": 11556,
  "🚎": 11557,
  "🚏": 11558,
  "🚐": 11559,
  "🚑": 11560,
  "🚒": 11561,
  "🚓": 11562,
  "🚔": 11563,
  "🚕": 11564,
  "🚖": 11565,
  "🚗": 11566,
  "🚘": 11567,
  "🚙": 11568,
  "🚚": 11569,
  "🚛": 11570,
  "🚜": 11571,
  "🚝": 11572,
  "🚞": 11573,
  "🚠": 11574,
  "🚢": 11575,
  "🚣": 11576,
  "🚤": 11577,
  "🚥": 11578,
  "🚦": 11579,
  "🚧": 11580,
  "🚨": 11581,
  "🚩": 11582,
  "🚪": 11583,
  "🚫": 11584,
  "🚬": 11585,
  "🚭": 11586,
  "🚮": 11587,
  "🚯": 11588,
  "🚰": 11589,
  "🚱": 11590,
  "🚲": 11591,
  "🚴": 11592,
  "🚵": 11593,
  "🚶": 11594,
  "🚷": 11595,
  "🚸": 11596,
  "🚹": 11597,
  "🚺": 11598,
  "🚻": 11599,
  "🚼": 11600,
  "🚽": 11601,
  "🚾": 11602,
  "🚿": 11603,
  "🛀": 11604,
  "🛁": 11605,
  "🛂": 11606,
  "🛃": 11607,
  "🛇": 11608,
  "🛋": 11609,
  "🛌": 11610,
  "🛍": 11611,
  "🛎": 11612,
  "🛏": 11613,
  "🛐": 11614,
  "🛑": 11615,
  "🛒": 11616,
  "🛖": 11617,
  "🛗": 11618,
  "🛞": 11619,
  "🛠": 11620,
  "🛡": 11621,
  "🛢": 11622,
  "🛣": 11623,
  "🛤": 11624,
  "🛥": 11625,
  "🛩": 11626,
  "🛫": 11627,
  "🛬": 11628,
  "🛰": 11629,
  "🛳": 11630,
  "🛴": 11631,
  "🛵": 11632,
  "🛶": 11633,
  "🛷": 11634,
  "🛸": 11635,
  "🛹": 11636,
  "🛺": 11637,
  "🛻": 11638,
  "🜨": 11639,
  "🝐": 11640,
  "🞮": 11641,
  "🟠": 11642,
  "🟡": 11643,
  "🟢": 11644,
  "🟣": 11645,
  "🟤": 11646,
  "🟥": 11647,
  "🟦": 11648,
  "🟧": 11649,
  "🟨": 11650,
  "🟩": 11651,
  "🟪": 11652,
  "🠊": 11653,
  "🠞": 11654,
  "🡇": 11655,
  "🡒": 11656,
  "🡣": 11657,
  "🡦": 11658,
  "🡲": 11659,
  "🡺": 11660,
  "🢂": 11661,
  "🢚": 11662,
  "🤌": 11663,
  "🤍": 11664,
  "🤎": 11665,
  "🤏": 11666,
  "🤐": 11667,
  "🤑": 11668,
  "🤒": 11669,
  "🤓": 11670,
  "🤔": 11671,
  "🤕": 11672,
  "🤖": 11673,
  "🤗": 11674,
  "🤘": 11675,
  "🤙": 11676,
  "🤚": 11677,
  "🤛": 11678,
  "🤜": 11679,
  "🤝": 11680,
  "🤞": 11681,
  "🤟": 11682,
  "🤠": 11683,
  "🤡": 11684,
  "🤢": 11685,
  "🤣": 11686,
  "🤤": 11687,
  "🤥": 11688,
  "🤦": 11689,
  "🤧": 11690,
  "🤨": 11691,
  "🤩": 11692,
  "🤪": 11693,
  "🤫": 11694,
  "🤬": 11695,
  "🤭": 11696,
  "🤮": 11697,
  "🤯": 11698,
  "🤰": 11699,
  "🤱": 11700,
  "🤲": 11701,
  "🤳": 11702,
  "🤴": 11703,
  "🤵": 11704,
  "🤶": 11705,
  "🤷": 11706,
  "🤸": 11707,
  "🤹": 11708,
  "🤺": 11709,
  "🤼": 11710,
  "🤽": 11711,
  "🤾": 11712,
  "🤿": 11713,
  "🥀": 11714,
  "🥁": 11715,
  "🥂": 11716,
  "🥃": 11717,
  "🥄": 11718,
  "🥅": 11719,
  "🥇": 11720,
  "🥈": 11721,
  "🥉": 11722,
  "🥊": 11723,
  "🥋": 11724,
  "🥎": 11725,
  "🥏": 11726,
  "🥐": 11727,
  "🥑": 11728,
  "🥒": 11729,
  "🥓": 11730,
  "🥔": 11731,
  "🥕": 11732,
  "🥖": 11733,
  "🥗": 11734,
  "🥘": 11735,
  "🥙": 11736,
  "🥚": 11737,
  "🥛": 11738,
  "🥜": 11739,
  "🥝": 11740,
  "🥞": 11741,
  "🥟": 11742,
  "🥡": 11743,
  "🥢": 11744,
  "🥣": 11745,
  "🥤": 11746,
  "🥥": 11747,
  "🥦": 11748,
  "🥧": 11749,
  "🥨": 11750,
  "🥩": 11751,
  "🥪": 11752,
  "🥫": 11753,
  "🥬": 11754,
  "🥭": 11755,
  "🥮": 11756,
  "🥯": 11757,
  "🥰": 11758,
  "🥱": 11759,
  "🥲": 11760,
  "🥳": 11761,
  "🥴": 11762,
  "🥵": 11763,
  "🥶": 11764,
  "🥷": 11765,
  "🥸": 11766,
  "🥹": 11767,
  "🥺": 11768,
  "🥼": 11769,
  "🥽": 11770,
  "🥾": 11771,
  "🦀": 11772,
  "🦁": 11773,
  "🦂": 11774,
  "🦃": 11775,
  "🦄": 11776,
  "🦅": 11777,
  "🦆": 11778,
  "🦇": 11779,
  "🦈": 11780,
  "🦉": 11781,
  "🦊": 11782,
  "🦋": 11783,
  "🦌": 11784,
  "🦎": 11785,
  "🦏": 11786,
  "🦐": 11787,
  "🦒": 11788,
  "🦓": 11789,
  "🦔": 11790,
  "🦕": 11791,
  "🦖": 11792,
  "🦘": 11793,
  "🦙": 11794,
  "🦚": 11795,
  "🦜": 11796,
  "🦝": 11797,
  "🦟": 11798,
  "🦠": 11799,
  "🦢": 11800,
  "🦥": 11801,
  "🦦": 11802,
  "🦧": 11803,
  "🦩": 11804,
  "🦪": 11805,
  "🦮": 11806,
  "🦯": 11807,
  "🦰": 11808,
  "🦱": 11809,
  "🦳": 11810,
  "🦴": 11811,
  "🦵": 11812,
  "🦶": 11813,
  "🦷": 11814,
  "🦸": 11815,
  "🦹": 11816,
  "🦺": 11817,
  "🦻": 11818,
  "🦽": 11819,
  "🦾": 11820,
  "🦿": 11821,
  "🧀": 11822,
  "🧁": 11823,
  "🧂": 11824,
  "🧃": 11825,
  "🧄": 11826,
  "🧅": 11827,
  "🧇": 11828,
  "🧈": 11829,
  "🧉": 11830,
  "🧊": 11831,
  "🧋": 11832,
  "🧍": 11833,
  "🧏": 11834,
  "🧐": 11835,
  "🧑": 11836,
  "🧒": 11837,
  "🧓": 11838,
  "🧔": 11839,
  "🧖": 11840,
  "🧗": 11841,
  "🧘": 11842,
  "🧙": 11843,
  "🧚": 11844,
  "🧛": 11845,
  "🧜": 11846,
  "🧝": 11847,
  "🧞": 11848,
  "🧟": 11849,
  "🧠": 11850,
  "🧡": 11851,
  "🧢": 11852,
  "🧣": 11853,
  "🧤": 11854,
  "🧥": 11855,
  "🧦": 11856,
  "🧨": 11857,
  "🧩": 11858,
  "🧪": 11859,
  "🧫": 11860,
  "🧬": 11861,
  "🧭": 11862,
  "🧮": 11863,
  "🧯": 11864,
  "🧰": 11865,
  "🧱": 11866,
  "🧲": 11867,
  "🧳": 11868,
  "🧴": 11869,
  "🧵": 11870,
  "🧶": 11871,
  "🧷": 11872,
  "🧸": 11873,
  "🧹": 11874,
  "🧺": 11875,
  "🧼": 11876,
  "🧽": 11877,
  "🧾": 11878,
  "🧿": 11879,
  "🩰": 11880,
  "🩱": 11881,
  "🩸": 11882,
  "🩹": 11883,
  "🩺": 11884,
  "🪀": 11885,
  "🪁": 11886,
  "🪂": 11887,
  "🪄": 11888,
  "🪅": 11889,
  "🪐": 11890,
  "🪑": 11891,
  "🪓": 11892,
  "🪔": 11893,
  "🪕": 11894,
  "🪖": 11895,
  "🪗": 11896,
  "🪘": 11897,
  "🪙": 11898,
  "🪚": 11899,
  "🪜": 11900,
  "🪝": 11901,
  "🪞": 11902,
  "🪟": 11903,
  "🪡": 11904,
  "🪢": 11905,
  "🪣": 11906,
  "🪤": 11907,
  "🪥": 11908,
  "🪦": 11909,
  "🪧": 11910,
  "🪨": 11911,
  "🪪": 11912,
  "🪫": 11913,
  "🪱": 11914,
  "🪳": 11915,
  "🪴": 11916,
  "🪵": 11917,
  "🪶": 11918,
  "🫀": 11919,
  "🫁": 11920,
  "🫂": 11921,
  "🫐": 11922,
  "🫑": 11923,
  "🫒": 11924,
  "🫓": 11925,
  "🫖": 11926,
  "🫠": 11927,
  "🫡": 11928,
  "🫢": 11929,
  "🫣": 11930,
  "🫵": 11931,
  "🫶": 11932,
  "𠄧": 11933,
  "𠅊": 11934,
  "𠆜": 11935,
  "𠇊": 11936,
  "𠫧": 11937,
  "𧅨": 11938,
  "𧈢": 11939,
  "𧏡": 11940,
  "𧴦": 11941,
  "𳿠": 11942,
  "𽉱": 11943,
  "𽑥": 11944,
  "󠁢": 11945,
  "󠁣": 11946,
  "󠁥": 11947,
  "󠁧": 11948,
  "󠁬": 11949,
  "󠁮": 11950,
  "󠁳": 11951,
  "󠁴": 11952,
  "󠁷": 11953,
  "󠁿": 11954,
  "󬬬": 11955,
  "󰀃": 11956,
  "󰀙": 11957,
  "󾟤": 11958,
  "󾬓": 11959,
  "󾬕": 11960,
  "􀀁": 11961,
  "􀀅": 11962,
  "􀀆": 11963,
  "􀀇": 11964,
  "􀀈": 11965,
  "􀀉": 11966,
  "􀀊": 11967,
  "􀀍": 11968,
  "􀀎": 11969,
  "􀀐": 11970,
  "􀀒": 11971,
  "􀀓": 11972,
  "􀀔": 11973,
  "􀀕": 11974,
  "􀀚": 11975,
  "􀀜": 11976,
  "􀀝": 11977,
  "􀄫": 11978,
  "􈁉": 11979,
  "􈼽": 11980,
  "􉑥": 11981,
  "􏰀": 11982,
  "▁п": 11983,
  "▁в": 11984,
  "на": 11985,
  "ро": 11986,
  "ст": 11987,
  "▁з": 11988,
  "но": 11989,
  "ни": 11990,
  "ко": 11991,
  "ра": 11992,
  "▁д": 11993,
  "ти": 11994,
  "ні": 11995,
  "ер": 11996,
  "ва": 11997,
  "▁с": 11998,
  "го": 11999,
  "▁т": 12000,
  "ня": 12001,
  "ід": 12002,
  "ен": 12003,
  "▁на": 12004,
  "ри": 12005,
  "▁м": 12006,
  "ов": 12007,
  "ль": 12008,
  "ли": 12009,
  "▁і": 12010,
  "ка": 12011,
  "ів": 12012,
  "▁за": 12013,
  "▁о": 12014,
  "▁по": 12015,
  "ть": 12016,
  "ла": 12017,
  "ці": 12018,
  "ки": 12019,
  "▁б": 12020,
  "не": 12021,
  "▁у": 12022,
  "во": 12023,
  ".\n": 12024,
  "ся": 12025,
  "ку": 12026,
  "▁ви": 12027,
  "ло": 12028,
  "лі": 12029,
  "▁до": 12030,
  "ре": 12031,
  "ми": 12032,
  "сь": 12033,
  "то": 12034,
  "ля": 12035,
  "▁та": 12036,
  "▁про": 12037,
  "▁а": 12038,
  "та": 12039,
  "ви": 12040,
  "рі": 12041,
  "да": 12042,
  "▁ро": 12043,
  "ди": 12044,
  "ма": 12045,
  "му": 12046,
  "ння": 12047,
  "▁не": 12048,
  "ле": 12049,
  "▁я": 12050,
  "ення": 12051,
  "ча": 12052,
  "▁ко": 12053,
  "що": 12054,
  "ере": 12055,
  "ру": 12056,
  "▁від": 12057,
  "ста": 12058,
  "ну": 12059,
  "ві": 12060,
  "мі": 12061,
  "га": 12062,
  "чи": 12063,
  "ту": 12064,
  "мо": 12065,
  "по": 12066,
  "кі": 12067,
  "них": 12068,
  "▁що": 12069,
  "те": 12070,
  "ого": 12071,
  "кра": 12072,
  "ного": 12073,
  "▁при": 12074,
  "ться": 12075,
  "▁П": 12076,
  "ний": 12077,
  "ді": 12078,
  "▁В": 12079,
  "ува": 12080,
  "бо": 12081,
  "▁мо": 12082,
  "▁ц": 12083,
  "сті": 12084,
  "сі": 12085,
  "▁бу": 12086,
  "▁г": 12087,
  "лю": 12088,
  "же": 12089,
  "▁ма": 12090,
  "хо": 12091,
  "▁У": 12092,
  "за": 12093,
  "▁роз": 12094,
  "ної": 12095,
  "до": 12096,
  "▁ф": 12097,
  "краї": 12098,
  "▁мі": 12099,
  "▁К": 12100,
  "▁під": 12101,
  "ду": 12102,
  "▁С": 12103,
  "▁к": 12104,
  "па": 12105,
  "▁(": 12106,
  "▁об": 12107,
  "со": 12108,
  "іль": 12109,
  "сти": 12110,
  "сько": 12111,
  "▁ре": 12112,
  "ши": 12113,
  "сто": 12114,
  "си": 12115,
  "сть": 12116,
  "де": 12117,
  "ють": 12118,
  "ор": 12119,
  "▁ін": 12120,
  "ції": 12121,
  "▁пере": 12122,
  "ті": 12123,
  "ови": 12124,
  "лу": 12125,
  "▁М": 12126,
  "пе": 12127,
  "▁Д": 12128,
  "ків": 12129,
  "▁Н": 12130,
  "жи": 12131,
  "▁для": 12132,
  "ше": 12133,
  "▁«": 12134,
  "би": 12135,
  "жа": 12136,
  "▁ч": 12137,
  "▁ра": 12138,
  "▁–": 12139,
  "су": 12140,
  "▁те": 12141,
  "зи": 12142,
  "ме": 12143,
  "▁З": 12144,
  "пи": 12145,
  "▁Т": 12146,
  "▁й": 12147,
  "▁то": 12148,
  "▁ста": 12149,
  "нь": 12150,
  "▁е": 12151,
  "ється": 12152,
  "ба": 12153,
  "▁-": 12154,
  "кла": 12155,
  "▁го": 12156,
  "кий": 12157,
  "▁А": 12158,
  "▁пра": 12159,
  "ез": 12160,
  "▁во": 12161,
  "▁як": 12162,
  "гі": 12163,
  "▁ві": 12164,
  "▁Украї": 12165,
  "▁ва": 12166,
  "▁ш": 12167,
  "бу": 12168,
  "▁су": 12169,
  "са": 12170,
  "мен": 12171,
  "▁О": 12172,
  "▁Р": 12173,
  "ря": 12174,
  "бі": 12175,
  "ве": 12176,
  "▁ст": 12177,
  "▁пов": 12178,
  "▁ді": 12179,
  "▁ча": 12180,
  "зна": 12181,
  "▁ба": 12182,
  "▁ка": 12183,
  "тя": 12184,
  "▁па": 12185,
  "▁х": 12186,
  "▁це": 12187,
  "це": 12188,
  "▁сп": 12189,
  "че": 12190,
  "▁ї": 12191,
  "тів": 12192,
  "цій": 12193,
  "▁Б": 12194,
  "рів": 12195,
  "вання": 12196,
  "ним": 12197,
  "пов": 12198,
  "▁си": 12199,
  "три": 12200,
  "тер": 12201,
  "▁де": 12202,
  "▁ме": 12203,
  "се": 12204,
  "ому": 12205,
  "кти": 12206,
  "вати": 12207,
  "ності": 12208,
  "▁є": 12209,
  "▁\"": 12210,
  "ень": 12211,
  "▁са": 12212,
  "пу": 12213,
  "▁мож": 12214,
  "ких": 12215,
  "\n-": 12216,
  "аль": 12217,
  "зу": 12218,
  "нов": 12219,
  "м,": 12220,
  "▁І": 12221,
  "гу": 12222,
  "▁но": 12223,
  "лення": 12224,
  "▁Г": 12225,
  "рав": 12226,
  "ження": 12227,
  "ць": 12228,
  "▁які": 12229,
  "'я": 12230,
  "▁ти": 12231,
  "лов": 12232,
  "▁чи": 12233,
  "вер": 12234,
  "сту": 12235,
  "ній": 12236,
  "▁сво": 12237,
  "▁лю": 12238,
  "пі": 12239,
  "ування": 12240,
  "▁кон": 12241,
  "ги": 12242,
  "фі": 12243,
  "▁України": 12244,
  "ність": 12245,
  "▁лі": 12246,
  "ною": 12247,
  "▁На": 12248,
  "чі": 12249,
  "▁ди": 12250,
  "▁рі": 12251,
  "ще": 12252,
  "▁Л": 12253,
  "ному": 12254,
  "сте": 12255,
  "▁ж": 12256,
  "▁зна": 12257,
  "он": 12258,
  "▁вико": 12259,
  "ця": 12260,
  "від": 12261,
  "▁пре": 12262,
  "ними": 12263,
  "ню": 12264,
  "▁да": 12265,
  "ція": 12266,
  "про": 12267,
  "▁або": 12268,
  "▁—": 12269,
  "▁ми": 12270,
  "об": 12271,
  "ття": 12272,
  "ом": 12273,
  "▁ці": 12274,
  "дя": 12275,
  "увати": 12276,
  "ської": 12277,
  "▁пер": 12278,
  "..": 12279,
  "нів": 12280,
  "тра": 12281,
  "ського": 12282,
  "▁со": 12283,
  "лід": 12284,
  "▁За": 12285,
  "ар": 12286,
  "▁ве": 12287,
  "▁жи": 12288,
  "▁без": 12289,
  "фор": 12290,
  "ої": 12291,
  "ха": 12292,
  "▁од": 12293,
  "гра": 12294,
  "ші": 12295,
  "повід": 12296,
  "ються": 12297,
  "кож": 12298,
  "дів": 12299,
  "▁ку": 12300,
  "▁його": 12301,
  "роб": 12302,
  "▁ос": 12303,
  "’я": 12304,
  "лек": 12305,
  "ник": 12306,
  "тро": 12307,
  "▁ор": 12308,
  "▁кі": 12309,
  "зі": 12310,
  "при": 12311,
  "нсь": 12312,
  "ніст": 12313,
  "ючи": 12314,
  "еред": 12315,
  "▁ні": 12316,
  "▁Я": 12317,
  "▁По": 12318,
  "чу": 12319,
  "▁ком": 12320,
  "▁спо": 12321,
  "▁се": 12322,
  "чення": 12323,
  "тися": 12324,
  "ву": 12325,
  ".\nП": 12326,
  "ю,": 12327,
  "▁пі": 12328,
  "род": 12329,
  "ника": 12330,
  "хід": 12331,
  "нні": 12332,
  "ержа": 12333,
  "она": 12334,
  "тов": 12335,
  "фе": 12336,
  "▁ду": 12337,
  "▁ли": 12338,
  "ього": 12339,
  "гля": 12340,
  "ран": 12341,
  "трі": 12342,
  "▁із": 12343,
  "▁Ц": 12344,
  "ємо": 12345,
  "вор": 12346,
  "жу": 12347,
  "дов": 12348,
  "ке": 12349,
  "ден": 12350,
  "▁року": 12351,
  "На": 12352,
  "▁робо": 12353,
  "ми,": 12354,
  "▁орга": 12355,
  "ливо": 12356,
  "ців": 12357,
  "ери": 12358,
  "▁га": 12359,
  "к,": 12360,
  "спо": 12361,
  "мов": 12362,
  "ти,": 12363,
  "шення": 12364,
  "хи": 12365,
  "тич": 12366,
  "віт": 12367,
  "ки,": 12368,
  "тку": 12369,
  "вих": 12370,
  "▁їх": 12371,
  "▁пи": 12372,
  "▁також": 12373,
  "тор": 12374,
  "лів": 12375,
  "▁най": 12376,
  "ша": 12377,
  "ком": 12378,
  "▁може": 12379,
  "▁час": 12380,
  "▁Ч": 12381,
  "логі": 12382,
  "трима": 12383,
  "▁бо": 12384,
  "шу": 12385,
  "▁сто": 12386,
  "▁хо": 12387,
  "кри": 12388,
  "▁обла": 12389,
  "▁пла": 12390,
  "ци": 12391,
  "тив": 12392,
  "щи": 12393,
  "рист": 12394,
  "▁вла": 12395,
  "▁фі": 12396,
  "▁біль": 12397,
  "кого": 12398,
  "▁міс": 12399,
  "▁бі": 12400,
  "ників": 12401,
  "ін": 12402,
  "нення": 12403,
  "▁Х": 12404,
  "став": 12405,
  "▁осо": 12406,
  "ок": 12407,
  "▁відповід": 12408,
  "ково": 12409,
  "▁всі": 12410,
  "▁гро": 12411,
  "\nП": 12412,
  "час": 12413,
  "клад": 12414,
  "вся": 12415,
  "кту": 12416,
  ".\nВ": 12417,
  "▁Ф": 12418,
  "ства": 12419,
  "ун": 12420,
  "▁допо": 12421,
  "ерез": 12422,
  "ері": 12423,
  "дин": 12424,
  "▁який": 12425,
  "ктив": 12426,
  "прав": 12427,
  "коно": 12428,
  "єм": 12429,
  "йте": 12430,
  "За": 12431,
  "▁можна": 12432,
  "er": 12433,
  "сля": 12434,
  "рах": 12435,
  "дат": 12436,
  "▁украї": 12437,
  "дій": 12438,
  "вто": 12439,
  "▁але": 12440,
  "сій": 12441,
  "цію": 12442,
  "чних": 12443,
  "м.": 12444,
  "»,": 12445,
  "цю": 12446,
  "▁він": 12447,
  "ене": 12448,
  "біль": 12449,
  "бе": 12450,
  "▁Ро": 12451,
  "▁буде": 12452,
  "▁держа": 12453,
  "слід": 12454,
  "▁змі": 12455,
  "\n\n": 12456,
  "ова": 12457,
  "▁ру": 12458,
  "▁щоб": 12459,
  "▁полі": 12460,
  "in": 12461,
  "ших": 12462,
  "цт": 12463,
  "▁Та": 12464,
  "▁зі": 12465,
  "вий": 12466,
  "),": 12467,
  "рт": 12468,
  "пер": 12469,
  "ходи": 12470,
  "слу": 12471,
  "чні": 12472,
  "форма": 12473,
  "▁повід": 12474,
  "ща": 12475,
  "кою": 12476,
  "єю": 12477,
  "▁її": 12478,
  "▁р": 12479,
  "лися": 12480,
  "ський": 12481,
  "▁ци": 12482,
  "х,": 12483,
  "▁Ко": 12484,
  "ем": 12485,
  "▁фор": 12486,
  "й,": 12487,
  "ан": 12488,
  "▁гру": 12489,
  "▁нав": 12490,
  "дь": 12491,
  "льного": 12492,
  "дже": 12493,
  "ні,": 12494,
  "лен": 12495,
  "дна": 12496,
  "ову": 12497,
  "▁Про": 12498,
  "ступ": 12499,
  "но-": 12500,
  "▁було": 12501,
  "▁тому": 12502,
  "▁органі": 12503,
  "▁зав": 12504,
  "▁сві": 12505,
  "▁свої": 12506,
  "▁допомо": 12507,
  "но,": 12508,
  "зь": 12509,
  "ські": 12510,
  "в,": 12511,
  "▁Ви": 12512,
  "кт": 12513,
  "тері": 12514,
  "ким": 12515,
  "чного": 12516,
  "йо": 12517,
  "кої": 12518,
  "нд": 12519,
  "▁ту": 12520,
  "▁Є": 12521,
  "оло": 12522,
  "яв": 12523,
  "▁систе": 12524,
  "том": 12525,
  "▁фа": 12526,
  "\nВ": 12527,
  "▁ще": 12528,
  "нього": 12529,
  "ники": 12530,
  "без": 12531,
  "▁різ": 12532,
  "ка,": 12533,
  "кс": 12534,
  "▁так": 12535,
  "▁авто": 12536,
  "вали": 12537,
  "▁кіль": 12538,
  "рії": 12539,
  "▁вій": 12540,
  "▁все": 12541,
  "ку,": 12542,
  "▁зро": 12543,
  "▁цього": 12544,
  "__": 12545,
  "▁Ма": 12546,
  "вя": 12547,
  "▁ри": 12548,
  "стру": 12549,
  "▁коли": 12550,
  "▁бага": 12551,
  "▁дов": 12552,
  "ряд": 12553,
  "▁май": 12554,
  "▁того": 12555,
  "чно": 12556,
  "▁Ки": 12557,
  "on": 12558,
  "безпе": 12559,
  ".\n-": 12560,
  "льних": 12561,
  "▁люди": 12562,
  "▁грома": 12563,
  "▁вели": 12564,
  "ціаль": 12565,
  "ницт": 12566,
  "каза": 12567,
  "кре": 12568,
  "чний": 12569,
  "кар": 12570,
  "ових": 12571,
  "▁Ва": 12572,
  "вори": 12573,
  "жі": 12574,
  "▁бути": 12575,
  "▁має": 12576,
  "▁отрима": 12577,
  "ни,": 12578,
  "нови": 12579,
  "▁кра": 12580,
  "▁скла": 12581,
  "нок": 12582,
  "▁пред": 12583,
  "▁вже": 12584,
  "ільки": 12585,
  "an": 12586,
  "раз": 12587,
  ":\n": 12588,
  "пла": 12589,
  "▁визна": 12590,
  "▁прий": 12591,
  "▁між": 12592,
  "▁розви": 12593,
  "▁сі": 12594,
  "▁три": 12595,
  "▁пе": 12596,
  "лося": 12597,
  "▁Ми": 12598,
  "чної": 12599,
  "ливі": 12600,
  "дання": 12601,
  ".\nД": 12602,
  "пера": 12603,
  "алі": 12604,
  "їв": 12605,
  "нова": 12606,
  "ент": 12607,
  "▁сер": 12608,
  "ї,": 12609,
  "▁проце": 12610,
  "нта": 12611,
  "дав": 12612,
  "дні": 12613,
  "н,": 12614,
  "▁дру": 12615,
  "мага": 12616,
  "на,": 12617,
  "ство": 12618,
  "▁місце": 12619,
  "льні": 12620,
  "▁До": 12621,
  "блі": 12622,
  "станов": 12623,
  "льта": 12624,
  "дар": 12625,
  "▁зу": 12626,
  "лася": 12627,
  "▁інформа": 12628,
  "ів,": 12629,
  "▁Ш": 12630,
  "'є": 12631,
  ".\nУ": 12632,
  "ові": 12633,
  "вро": 12634,
  "▁вони": 12635,
  "▁після": 12636,
  "▁яка": 12637,
  "ських": 12638,
  "▁необ": 12639,
  "ціона": 12640,
  "стрі": 12641,
  "лова": 12642,
  "▁дія": 12643,
  "олов": 12644,
  ";\n": 12645,
  "ська": 12646,
  "▁через": 12647,
  "сіб": 12648,
  "▁Як": 12649,
  "тріб": 12650,
  "льний": 12651,
  "▁тільки": 12652,
  "льної": 12653,
  "пра": 12654,
  "доро": 12655,
  "тання": 12656,
  "\",": 12657,
  ".\nНа": 12658,
  "стро": 12659,
  "зво": 12660,
  "▁перед": 12661,
  "or": 12662,
  "зації": 12663,
  "дження": 12664,
  "▁Це": 12665,
  "ху": 12666,
  "кції": 12667,
  "▁S": 12668,
  "▁Не": 12669,
  "бле": 12670,
  "ром": 12671,
  "▁Мі": 12672,
  "▁рів": 12673,
  ").": 12674,
  "▁краї": 12675,
  "▁поча": 12676,
  "▁держав": 12677,
  "риста": 12678,
  ".\nС": 12679,
  "нку": 12680,
  "en": 12681,
  "льно": 12682,
  "▁спе": 12683,
  "н.": 12684,
  "▁необхід": 12685,
  "ою": 12686,
  "ках": 12687,
  "▁Ка": 12688,
  "налі": 12689,
  "пад": 12690,
  "▁При": 12691,
  "бли": 12692,
  "нки": 12693,
  "тні": 12694,
  "▁C": 12695,
  "сла": 12696,
  "ми.": 12697,
  "▁“": 12698,
  "▁прове": 12699,
  "приєм": 12700,
  "▁років": 12701,
  "▁потріб": 12702,
  "кова": 12703,
  "▁викона": 12704,
  "яви": 12705,
  "хні": 12706,
  "▁кож": 12707,
  ".\n\n": 12708,
  "кто": 12709,
  "клю": 12710,
  "ном": 12711,
  "од": 12712,
  "▁пода": 12713,
  "▁над": 12714,
  "кому": 12715,
  "уть": 12716,
  "▁серед": 12717,
  "▁якщо": 12718,
  "▁дуже": 12719,
  "вого": 12720,
  "ерів": 12721,
  "пані": 12722,
  "▁части": 12723,
  "ляє": 12724,
  "▁повідом": 12725,
  ";\n-": 12726,
  "вича": 12727,
  "Як": 12728,
  "нс": 12729,
  "▁ле": 12730,
  "▁и": 12731,
  "▁влас": 12732,
  "стра": 12733,
  "▁ву": 12734,
  "▁вироб": 12735,
  "▁щодо": 12736,
  "▁навча": 12737,
  "▁кри": 12738,
  "сії": 12739,
  "бува": 12740,
  "ток": 12741,
  "шого": 12742,
  "кон": 12743,
  "▁життя": 12744,
  "▁матері": 12745,
  "▁зали": 12746,
  ".\nТ": 12747,
  "ar": 12748,
  "ге": 12749,
  "сли": 12750,
  "важа": 12751,
  "кіль": 12752,
  "вид": 12753,
  "щення": 12754,
  "ворю": 12755,
  "▁чер": 12756,
  "дення": 12757,
  "▁№": 12758,
  "▁області": 12759,
  "стій": 12760,
  "▁того,": 12761,
  "бра": 12762,
  "т,": 12763,
  "лови": 12764,
  "єї": 12765,
  "▁використ": 12766,
  "▁само": 12767,
  "нен": 12768,
  "ьому": 12769,
  "ман": 12770,
  "кономі": 12771,
  "es": 12772,
  "стя": 12773,
  "▁ла": 12774,
  "▁цьому": 12775,
  "▁забезпе": 12776,
  "сів": 12777,
  "▁A": 12778,
  "в'я": 12779,
  "▁ті": 12780,
  "▁му": 12781,
  "вав": 12782,
  "▁слу": 12783,
  "▁важ": 12784,
  "▁україн": 12785,
  "▁проду": 12786,
  "ками": 12787,
  "▁раз": 12788,
  "▁більше": 12789,
  "▁багато": 12790,
  "ли,": 12791,
  "▁був": 12792,
  ".\nЗа": 12793,
  "мови": 12794,
  "at": 12795,
  "йш": 12796,
  "▁те,": 12797,
  "▁зб": 12798,
  "▁працю": 12799,
  "▁захи": 12800,
  "▁Україні": 12801,
  "дійс": 12802,
  "▁підприєм": 12803,
  "▁повер": 12804,
  "▁Е": 12805,
  "▁можуть": 12806,
  "▁діяль": 12807,
  "зульта": 12808,
  "▁гра": 12809,
  "єн": 12810,
  "▁мето": 12811,
  ".\nК": 12812,
  "▁ни": 12813,
  "ео": 12814,
  "енко": 12815,
  "▁право": 12816,
  "▁Ра": 12817,
  "мента": 12818,
  "▁лише": 12819,
  "\nС": 12820,
  "▁ад": 12821,
  "▁роботи": 12822,
  "▁результа": 12823,
  "▁пови": 12824,
  "al": 12825,
  "▁нау": 12826,
  "ерито": 12827,
  "▁нас": 12828,
  "▁|": 12829,
  "бити": 12830,
  "▁зага": 12831,
  "ска": 12832,
  "оми": 12833,
  "ління": 12834,
  "ший": 12835,
  "ур": 12836,
  "▁програ": 12837,
  "▁елек": 12838,
  "віть": 12839,
  "▁будь": 12840,
  "вар": 12841,
  "ктів": 12842,
  "нути": 12843,
  "стос": 12844,
  "▁ар": 12845,
  ".\nО": 12846,
  "▁терито": 12847,
  "▁ха": 12848,
  "мер": 12849,
  "▁голов": 12850,
  "».": 12851,
  "зе": 12852,
  "ніше": 12853,
  "▁істо": 12854,
  "▁P": 12855,
  "▁проти": 12856,
  "вичай": 12857,
  "ско": 12858,
  "▁вона": 12859,
  "твер": 12860,
  "кість": 12861,
  "зиден": 12862,
  "ністю": 12863,
  "леж": 12864,
  "мін": 12865,
  "триму": 12866,
  "▁були": 12867,
  "▁здійс": 12868,
  "\nД": 12869,
  "чна": 12870,
  "є,": 12871,
  "рак": 12872,
  "▁них": 12873,
  "вої": 12874,
  "мова": 12875,
  "▁гр": 12876,
  "▁тре": 12877,
  "рія": 12878,
  "▁представ": 12879,
  "▁комп": 12880,
  "зо": 12881,
  "▁яких": 12882,
  "піль": 12883,
  "▁моло": 12884,
  "дуть": 12885,
  "▁кла": 12886,
  "▁Во": 12887,
  "▁висо": 12888,
  "кові": 12889,
  "пли": 12890,
  "нці": 12891,
  "▁M": 12892,
  "▁I": 12893,
  "▁інших": 12894,
  "льту": 12895,
  "▁екс": 12896,
  "л.": 12897,
  "чого": 12898,
  "▁розмі": 12899,
  "кли": 12900,
  "▁пар": 12901,
  "\nУ": 12902,
  "▁використа": 12903,
  "готов": 12904,
  "ну,": 12905,
  "ір": 12906,
  "▁випад": 12907,
  "хов": 12908,
  "▁пробле": 12909,
  "писа": 12910,
  "▁ки": 12911,
  "енер": 12912,
  "ки.": 12913,
  "нг": 12914,
  "-я": 12915,
  "it": 12916,
  "▁відкри": 12917,
  "рій": 12918,
  "ському": 12919,
  "каз": 12920,
  "▁зазна": 12921,
  "▁T": 12922,
  "▁Але": 12923,
  "мініст": 12924,
  "▁прави": 12925,
  "...": 12926,
  "кування": 12927,
  "▁люде": 12928,
  "▁спра": 12929,
  "олові": 12930,
  "спі": 12931,
  "▁Мо": 12932,
  "гою": 12933,
  "▁шко": 12934,
  "\nК": 12935,
  "le": 12936,
  "▁році": 12937,
  "▁дозво": 12938,
  "кості": 12939,
  "▁доку": 12940,
  "ьогодні": 12941,
  "st": 12942,
  "▁свя": 12943,
  "тей": 12944,
  "пере": 12945,
  "▁доб": 12946,
  "▁українсь": 12947,
  "щі": 12948,
  "біт": 12949,
  "▁дво": 12950,
  "▁спів": 12951,
  "▁вар": 12952,
  "▁особи": 12953,
  "▁Бо": 12954,
  "чити": 12955,
  "овий": 12956,
  "▁рішення": 12957,
  "▁Ба": 12958,
  "om": 12959,
  "▁нада": 12960,
  "роз": 12961,
  "ото": 12962,
  "дом": 12963,
  "▁кар": 12964,
  "▁звер": 12965,
  "бливо": 12966,
  "▁жит": 12967,
  "’є": 12968,
  "▁клі": 12969,
  "рім": 12970,
  "сія": 12971,
  "сну": 12972,
  "▁просто": 12973,
  "ут": 12974,
  "▁Па": 12975,
  "▁уча": 12976,
  "▁захо": 12977,
  "ту,": 12978,
  "▁прое": 12979,
  "народ": 12980,
  "ворення": 12981,
  "▁народ": 12982,
  "▁матеріа": 12983,
  "перед": 12984,
  "▁основ": 12985,
  "льна": 12986,
  "▁застос": 12987,
  "сподар": 12988,
  "▁Ві": 12989,
  "▁Від": 12990,
  "міна": 12991,
  "▁вирі": 12992,
  "▁швид": 12993,
  "талі": 12994,
  "дж": 12995,
  "▁компані": 12996,
  "лого": 12997,
  "гід": 12998,
  "води": 12999,
  "▁доро": 13000,
  "▁навіть": 13001,
  "в’я": 13002,
  "▁розвитку": 13003,
  "▁тра": 13004,
  "▁більш": 13005,
  "▁будь-я": 13006,
  "бір": 13007,
  "▁/": 13008,
  "▁пору": 13009,
  "лом": 13010,
  "▁бли": 13011,
  "хів": 13012,
  "▁електро": 13013,
  "▁економі": 13014,
  "▁військо": 13015,
  "кими": 13016,
  "кій": 13017,
  "▁потрібно": 13018,
  "тера": 13019,
  "▁поді": 13020,
  "чина": 13021,
  "▁управ": 13022,
  "вши": 13023,
  "▁прав": 13024,
  "▁здоро": 13025,
  "▁гри": 13026,
  "▁день": 13027,
  "▁цей": 13028,
  "▁була": 13029,
  "стан": 13030,
  "▁тран": 13031,
  "тре": 13032,
  "▁зай": 13033,
  "▁себе": 13034,
  "кур": 13035,
  "тери": 13036,
  "▁сту": 13037,
  "▁пропо": 13038,
  ".\nМ": 13039,
  "боро": 13040,
  "тен": 13041,
  "▁фіна": 13042,
  "мент": 13043,
  ".\nЗ": 13044,
  "ції,": 13045,
  "ди,": 13046,
  "с.": 13047,
  "▁ніж": 13048,
  "▁Щ": 13049,
  "хі": 13050,
  "оз": 13051,
  "▁Ре": 13052,
  "▁пози": 13053,
  "▁росій": 13054,
  "▁дослід": 13055,
  "▁Са": 13056,
  "▁питання": 13057,
  "▁хто": 13058,
  "това": 13059,
  "▁чолові": 13060,
  "▁ю": 13061,
  "ово": 13062,
  "▁встанов": 13063,
  "ic": 13064,
  "▁соціаль": 13065,
  "має": 13066,
  "▁Ж": 13067,
  "▁фун": 13068,
  "гом": 13069,
  "міністра": 13070,
  "вів": 13071,
  "▁один": 13072,
  "\nМ": 13073,
  "▁кор": 13074,
  "ниць": 13075,
  "▁Він": 13076,
  "мати": 13077,
  "▁че": 13078,
  "▁слова": 13079,
  "▁воло": 13080,
  "▁мають": 13081,
  "▁кро": 13082,
  "ництва": 13083,
  "ro": 13084,
  "ra": 13085,
  "нти": 13086,
  "енні": 13087,
  "▁вер": 13088,
  "▁тер": 13089,
  "голо": 13090,
  "чає": 13091,
  "туа": 13092,
  "▁Ін": 13093,
  "нням": 13094,
  "▁справ": 13095,
  "ньо": 13096,
  "ливість": 13097,
  "кільки": 13098,
  "ла,": 13099,
  "зова": 13100,
  "сні": 13101,
  "▁B": 13102,
  "хоро": 13103,
  "▁пу": 13104,
  "ніх": 13105,
  "▁форму": 13106,
  "бира": 13107,
  "▁дити": 13108,
  "тів,": 13109,
  "іт": 13110,
  "кси": 13111,
  "чне": 13112,
  "ю.": 13113,
  "▁засо": 13114,
  "▁t": 13115,
  "▁послу": 13116,
  "▁світ": 13117,
  "▁зас": 13118,
  "▁нап": 13119,
  "▁ефе": 13120,
  "нити": 13121,
  "▁саме": 13122,
  "носи": 13123,
  "▁ува": 13124,
  "▁теле": 13125,
  "ны": 13126,
  "нка": 13127,
  "____": 13128,
  "ктор": 13129,
  "▁осві": 13130,
  "ску": 13131,
  "шко": 13132,
  ".\nР": 13133,
  "▁F": 13134,
  "йти": 13135,
  "ни.": 13136,
  "▁това": 13137,
  "рту": 13138,
  "дати": 13139,
  "▁опера": 13140,
  "▁відбу": 13141,
  "▁законо": 13142,
  "ков": 13143,
  "▁усі": 13144,
  "сно": 13145,
  "х.": 13146,
  "▁мл": 13147,
  "чо": 13148,
  "▁Якщо": 13149,
  "над": 13150,
  "▁культу": 13151,
  "▁слід": 13152,
  "ск": 13153,
  "▁трав": 13154,
  "зя": 13155,
  "ння,": 13156,
  "м'я": 13157,
  "пара": 13158,
  "вим": 13159,
  "▁неза": 13160,
  "▁міста": 13161,
  "▁Ю": 13162,
  "ть,": 13163,
  "еріга": 13164,
  "ській": 13165,
  "того": 13166,
  ".\nЯк": 13167,
  "ОВ": 13168,
  "▁ід": 13169,
  "шої": 13170,
  "▁Ль": 13171,
  "▁вигля": 13172,
  "ці,": 13173,
  "▁р.": 13174,
  "▁пері": 13175,
  "овувати": 13176,
  "фо": 13177,
  "лені": 13178,
  "▁служ": 13179,
  "▁вважа": 13180,
  "омо": 13181,
  "дає": 13182,
  "нес": 13183,
  "вою": 13184,
  "▁діяльності": 13185,
  "▁мен": 13186,
  "▁«П": 13187,
  "мон": 13188,
  "тами": 13189,
  "▁кош": 13190,
  "▁уні": 13191,
  "▁сказа": 13192,
  "he": 13193,
  "жди": 13194,
  "кових": 13195,
  "▁будів": 13196,
  ")\n": 13197,
  "▁профе": 13198,
  "▁безпе": 13199,
  "▁харак": 13200,
  "▁сай": 13201,
  "▁зов": 13202,
  "▁Євро": 13203,
  "тних": 13204,
  "ти.": 13205,
  "▁меди": 13206,
  "хай": 13207,
  "кро": 13208,
  "▁нор": 13209,
  "клика": 13210,
  "стю": 13211,
  "тру": 13212,
  "лено": 13213,
  "▁всіх": 13214,
  "▁G": 13215,
  "▁кре": 13216,
  "різ": 13217,
  "▁райо": 13218,
  "▁мене": 13219,
  "свід": 13220,
  "ували": 13221,
  "▁ради": 13222,
  "стави": 13223,
  "рю": 13224,
  "ох": 13225,
  "деться": 13226,
  "хно": 13227,
  "▁кори": 13228,
  "▁спри": 13229,
  "▁зни": 13230,
  "гів": 13231,
  "▁громадя": 13232,
  "▁міся": 13233,
  "цією": 13234,
  "▁вибо": 13235,
  "сом": 13236,
  "пня": 13237,
  "стей": 13238,
  "▁рай": 13239,
  "ляр": 13240,
  "▁стан": 13241,
  "?\n": 13242,
  "▁повідоми": 13243,
  "▁змо": 13244,
  "▁ситуа": 13245,
  "ньої": 13246,
  "▁техні": 13247,
  "▁впли": 13248,
  "▁фінанс": 13249,
  "▁бю": 13250,
  "▁Ме": 13251,
  "▁Де": 13252,
  "▁керів": 13253,
  "▁шля": 13254,
  "▁комі": 13255,
  "▁управління": 13256,
  "▁практи": 13257,
  "ститу": 13258,
  "щу": 13259,
  "▁D": 13260,
  "чів": 13261,
  "нер": 13262,
  "▁ге": 13263,
  "▁актив": 13264,
  "▁розпо": 13265,
  "спіль": 13266,
  "ків,": 13267,
  "чки": 13268,
  "ні.": 13269,
  "ньому": 13270,
  "▁людей": 13271,
  "▁сти": 13272,
  "нець": 13273,
  ".\nА": 13274,
  "вір": 13275,
  "▁осіб": 13276,
  "▁свою": 13277,
  "дять": 13278,
  "окре": 13279,
  "гро": 13280,
  "▁Чер": 13281,
  "ac": 13282,
  "▁коро": 13283,
  "пута": 13284,
  "▁озна": 13285,
  "▁Киє": 13286,
  "▁призна": 13287,
  "▁дітей": 13288,
  "ри,": 13289,
  "▁лег": 13290,
  "▁R": 13291,
  "лі,": 13292,
  "▁близь": 13293,
  "▁особливо": 13294,
  "▁інші": 13295,
  "▁Для": 13296,
  "▁Олек": 13297,
  "\nО": 13298,
  "▁Су": 13299,
  "▁тор": 13300,
  "▁організа": 13301,
  "et": 13302,
  "ду,": 13303,
  "ватися": 13304,
  "я,": 13305,
  "тягом": 13306,
  "чну": 13307,
  "цен": 13308,
  "▁зо": 13309,
  "▁контро": 13310,
  "ніш": 13311,
  "гли": 13312,
  "▁ша": 13313,
  "єте": 13314,
  ".\nПро": 13315,
  "▁використову": 13316,
  "тування": 13317,
  "▁[": 13318,
  "\nНа": 13319,
  "▁можливо": 13320,
  "▁своє": 13321,
  "▁шкі": 13322,
  "▁вам": 13323,
  "▁зустрі": 13324,
  "▁розгля": 13325,
  "▁став": 13326,
  "▁Бу": 13327,
  "▁запи": 13328,
  "вала": 13329,
  "тті": 13330,
  "▁чу": 13331,
  "▁ши": 13332,
  "▁N": 13333,
  "▁інтер": 13334,
  "▁закла": 13335,
  "▁склад": 13336,
  "▁гу": 13337,
  "▁завжди": 13338,
  "приклад": 13339,
  "пів": 13340,
  "**": 13341,
  "трим": 13342,
  "ов'я": 13343,
  "няття": 13344,
  "джу": 13345,
  "▁тем": 13346,
  "▁Те": 13347,
  "▁найбіль": 13348,
  "менту": 13349,
  "▁допомогою": 13350,
  "кан": 13351,
  "▁гі": 13352,
  "▁зем": 13353,
  "▁розу": 13354,
  "▁підви": 13355,
  "ової": 13356,
  "к.": 13357,
  "ША": 13358,
  "▁бать": 13359,
  "фіка": 13360,
  "▁хви": 13361,
  "ється,": 13362,
  "шому": 13363,
  ":\n-": 13364,
  "їз": 13365,
  "▁стра": 13366,
  "спе": 13367,
  "▁заяви": 13368,
  "дими": 13369,
  "▁p": 13370,
  "ва,": 13371,
  "коли": 13372,
  "re": 13373,
  "фер": 13374,
  "хнологі": 13375,
  "▁сьогодні": 13376,
  "р.": 13377,
  "▁господар": 13378,
  "▁суд": 13379,
  "▁передба": 13380,
  "тки": 13381,
  "oo": 13382,
  "льо": 13383,
  "▁запро": 13384,
  "зку": 13385,
  "т.": 13386,
  "ництво": 13387,
  "фа": 13388,
  "▁проведення": 13389,
  "▁поси": 13390,
  "▁наступ": 13391,
  "▁рід": 13392,
  "лена": 13393,
  "гада": 13394,
  "ового": 13395,
  "іда": 13396,
  "шим": 13397,
  "▁жов": 13398,
  "▁спеціаль": 13399,
  "▁оці": 13400,
  "▁праців": 13401,
  "▁стру": 13402,
  "▁Воло": 13403,
  "Не": 13404,
  "▁пів": 13405,
  "тар": 13406,
  "тім": 13407,
  "ходить": 13408,
  "▁діа": 13409,
  "кін": 13410,
  "йн": 13411,
  "▁будуть": 13412,
  "▁коле": 13413,
  "▁ак": 13414,
  "▁націона": 13415,
  "ма,": 13416,
  "▁продов": 13417,
  "▁України,": 13418,
  "мож": 13419,
  "чих": 13420,
  "▁тр": 13421,
  "▁Ве": 13422,
  "▁L": 13423,
  "▁,": 13424,
  "санд": 13425,
  "is": 13426,
  "▁два": 13427,
  "ї.": 13428,
  "ня,": 13429,
  "▁учас": 13430,
  "м’я": 13431,
  "el": 13432,
  "▁E": 13433,
  "▁потре": 13434,
  "льне": 13435,
  "▁цен": 13436,
  "▁ст.": 13437,
  "кола": 13438,
  "▁насе": 13439,
  "▁сучас": 13440,
  "▁наз": 13441,
  "▁ско": 13442,
  "▁бажа": 13443,
  "▁участь": 13444,
  "▁вас": 13445,
  "▁вис": 13446,
  "тель": 13447,
  "▁якого": 13448,
  "▁U": 13449,
  "▁енер": 13450,
  "▁громад": 13451,
  "▁вимо": 13452,
  "▁вклю": 13453,
  "▁США": 13454,
  "кового": 13455,
  "▁конкур": 13456,
  "▁різних": 13457,
  "воро": 13458,
  "▁реалі": 13459,
  "гор": 13460,
  "▁об'є": 13461,
  "в.": 13462,
  "▁бюдже": 13463,
  "▁зоб": 13464,
  "▁здійсню": 13465,
  "бут": 13466,
  "▁пло": 13467,
  "▁офі": 13468,
  "▁відді": 13469,
  "▁зако": 13470,
  "▁будин": 13471,
  "▁Ні": 13472,
  "ціа": 13473,
  "нутрі": 13474,
  "▁тру": 13475,
  "нами": 13476,
  "▁такі": 13477,
  "▁вида": 13478,
  "▁Під": 13479,
  "ють,": 13480,
  "матич": 13481,
  "сяг": 13482,
  "▁зе": 13483,
  "▁Ку": 13484,
  "▁пита": 13485,
  "▁додат": 13486,
  "▁одно": 13487,
  "д.": 13488,
  "мери": 13489,
  "ісля": 13490,
  "▁тися": 13491,
  "ку.": 13492,
  "▁дея": 13493,
  "чені": 13494,
  "нутріш": 13495,
  "▁автомо": 13496,
  "нської": 13497,
  "▁нього": 13498,
  "▁Іва": 13499,
  "чої": 13500,
  "лей": 13501,
  "зму": 13502,
  "▁фото": 13503,
  "ником": 13504,
  "▁депута": 13505,
  "▁H": 13506,
  "▁корист": 13507,
  "дія": 13508,
  "сить": 13509,
  ".\nПо": 13510,
  "▁вчи": 13511,
  "▁комплек": 13512,
  "▁Пре": 13513,
  "гре": 13514,
  "▁Кри": 13515,
  "годи": 13516,
  "\nТ": 13517,
  "нський": 13518,
  "▁вза": 13519,
  "▁тим": 13520,
  "дії": 13521,
  "▁кур": 13522,
  "▁використання": 13523,
  "▁поса": 13524,
  "ті,": 13525,
  "▁сті": 13526,
  "ua": 13527,
  "▁ло": 13528,
  "комен": 13529,
  "▁нови": 13530,
  "▁президен": 13531,
  "гно": 13532,
  "\nР": 13533,
  "▁Кон": 13534,
  "ємо,": 13535,
  "▁докумен": 13536,
  "▁мар": 13537,
  "▁кілька": 13538,
  "il": 13539,
  "чка": 13540,
  ".\nТа": 13541,
  "тно": 13542,
  "жере": 13543,
  "▁іде": 13544,
  "▁моде": 13545,
  "ло,": 13546,
  "ed": 13547,
  "тори": 13548,
  "нського": 13549,
  "▁вихо": 13550,
  "гій": 13551,
  "▁кни": 13552,
  "▁бан": 13553,
  "▁Київ": 13554,
  "▁окре": 13555,
  "▁таких": 13556,
  ".\n«": 13557,
  "▁регі": 13558,
  "▁кількість": 13559,
  "льну": 13560,
  "▁W": 13561,
  "нову": 13562,
  "ерес": 13563,
  "▁под": 13564,
  "ТО": 13565,
  "▁розпов": 13566,
  "ває": 13567,
  "▁Го": 13568,
  "▁спі": 13569,
  "бою": 13570,
  "▁адміністра": 13571,
  "▁витра": 13572,
  "\".": 13573,
  "▁одна": 13574,
  "▁ефектив": 13575,
  "ра,": 13576,
  "▁проводи": 13577,
  "▁підтрим": 13578,
  "▁спи": 13579,
  "▁часу": 13580,
  "публі": 13581,
  "ційних": 13582,
  "▁збіль": 13583,
  "▁зах": 13584,
  "ol": 13585,
  "▁Володими": 13586,
  "▁дода": 13587,
  "ності,": 13588,
  "ion": 13589,
  "▁поз": 13590,
  "під": 13591,
  "▁мере": 13592,
  "▁території": 13593,
  "бов": 13594,
  "▁раді": 13595,
  "▁системи": 13596,
  "▁міжнарод": 13597,
  "пей": 13598,
  "▁функ": 13599,
  "\nА": 13600,
  "▁грн": 13601,
  "▁поперед": 13602,
  "жить": 13603,
  "▁одного": 13604,
  "л,": 13605,
  "▁Пе": 13606,
  "▁політи": 13607,
  "▁коман": 13608,
  "днання": 13609,
  "ниця": 13610,
  "▁дого": 13611,
  "▁пев": 13612,
  "▁протягом": 13613,
  "приклад,": 13614,
  "▁своїх": 13615,
  "▁можливість": 13616,
  "▁кому": 13617,
  "нах": 13618,
  "▁В.": 13619,
  "графі": 13620,
  "робіт": 13621,
  "▁варто": 13622,
  "чним": 13623,
  "▁тиж": 13624,
  "▁часто": 13625,
  "▁То": 13626,
  "жень": 13627,
  "звичай": 13628,
  "▁внутріш": 13629,
  "▁технологі": 13630,
  "дня": 13631,
  "▁цих": 13632,
  "нних": 13633,
  "▁наро": 13634,
  "▁поста": 13635,
  "▁тут": 13636,
  "▁квіт": 13637,
  "сите": 13638,
  "гідно": 13639,
  "▁ек": 13640,
  "▁зві": 13641,
  "дова": 13642,
  "пре": 13643,
  "рів,": 13644,
  "мис": 13645,
  "тє": 13646,
  "▁лікар": 13647,
  "ht": 13648,
  "▁транспо": 13649,
  "лений": 13650,
  "дово": 13651,
  "▁рік": 13652,
  "нє": 13653,
  "вич": 13654,
  "▁Мініст": 13655,
  "сло": 13656,
  "▁універ": 13657,
  "▁права": 13658,
  "нові": 13659,
  "сив": 13660,
  "▁Си": 13661,
  "ниці": 13662,
  "лювання": 13663,
  "нна": 13664,
  "тати": 13665,
  "р,": 13666,
  "▁суспіль": 13667,
  "▁запа": 13668,
  "чен": 13669,
  "вести": 13670,
  "лень": 13671,
  "▁фізи": 13672,
  "ou": 13673,
  "▁м.": 13674,
  "▁Лу": 13675,
  "▁облас": 13676,
  "▁необхідно": 13677,
  "▁бра": 13678,
  "▁існу": 13679,
  "пев": 13680,
  "▁V": 13681,
  "та,": 13682,
  "▁залиша": 13683,
  "штов": 13684,
  "СТ": 13685,
  "▁Олександ": 13686,
  "▁боро": 13687,
  "ну.": 13688,
  "ру,": 13689,
  "▁реє": 13690,
  ".\n\"": 13691,
  "таш": 13692,
  ".\nЧ": 13693,
  "ковий": 13694,
  "▁постій": 13695,
  "▁подат": 13696,
  "▁режи": 13697,
  "ій": 13698,
  "ційного": 13699,
  "▁цієї": 13700,
  "оти": 13701,
  "кової": 13702,
  "лій": 13703,
  "▁от": 13704,
  "АН": 13705,
  "▁виконання": 13706,
  "▁дум": 13707,
  "▁ціка": 13708,
  ".,": 13709,
  "лан": 13710,
  "▁питань": 13711,
  "тного": 13712,
  "▁Ти": 13713,
  "ляють": 13714,
  "▁сторі": 13715,
  "▁спіль": 13716,
  "сього": 13717,
  "▁втра": 13718,
  "▁напря": 13719,
  "мір": 13720,
  "лаго": 13721,
  "▁переда": 13722,
  "служ": 13723,
  "клада": 13724,
  "▁зміни": 13725,
  "▁поло": 13726,
  "сут": 13727,
  "▁дій": 13728,
  "▁c": 13729,
  "▁Га": 13730,
  "▁цент": 13731,
  "▁регу": 13732,
  "▁поба": 13733,
  "▁еле": 13734,
  "ка.": 13735,
  "▁яке": 13736,
  "▁сма": 13737,
  "\nПо": 13738,
  ".\nІ": 13739,
  "▁організації": 13740,
  "с,": 13741,
  "чин": 13742,
  "▁пун": 13743,
  "▁місця": 13744,
  "▁аналі": 13745,
  "ванта": 13746,
  ".\nБ": 13747,
  "▁собі": 13748,
  "▁розроб": 13749,
  "рок": 13750,
  "▁голо": 13751,
  "▁недо": 13752,
  "▁Да": 13753,
  "▁Чи": 13754,
  "▁зараз": 13755,
  "▁поя": 13756,
  "рта": 13757,
  "▁сіль": 13758,
  "▁берез": 13759,
  "▁забезпечення": 13760,
  "тувати": 13761,
  "рова": 13762,
  "▁яку": 13763,
  "▁Бі": 13764,
  "as": 13765,
  "ний,": 13766,
  "▁обме": 13767,
  "на.": 13768,
  "▁район": 13769,
  "▁зв'я": 13770,
  "няти": 13771,
  "ген": 13772,
  "ей": 13773,
  "сова": 13774,
  "нує": 13775,
  "шими": 13776,
  "тора": 13777,
  "вели": 13778,
  "чий": 13779,
  "▁зробити": 13780,
  "▁близько": 13781,
  "▁наяв": 13782,
  "▁прода": 13783,
  "▁оста": 13784,
  "ержав": 13785,
  "▁успі": 13786,
  "▁тро": 13787,
  "мані": 13788,
  "▁Тому": 13789,
  "▁мета": 13790,
  "▁Сер": 13791,
  "▁біз": 13792,
  "▁початку": 13793,
  "бів": 13794,
  "▁листо": 13795,
  "пада": 13796,
  "▁Роз": 13797,
  "▁свід": 13798,
  "▁реа": 13799,
  "▁свого": 13800,
  "▁пси": 13801,
  "ліз": 13802,
  "нська": 13803,
  "▁Вер": 13804,
  "шити": 13805,
  "ріан": 13806,
  "▁разом": 13807,
  "▁грив": 13808,
  "вають": 13809,
  "▁законодав": 13810,
  "кру": 13811,
  "кта": 13812,
  "пити": 13813,
  "▁підготов": 13814,
  "чня": 13815,
  "▁діля": 13816,
  "▁немає": 13817,
  "▁жа": 13818,
  "▁дня": 13819,
  "чаль": 13820,
  "▁свій": 13821,
  "▁захворю": 13822,
  "▁тому,": 13823,
  "▁двох": 13824,
  "сер": 13825,
  "!\n": 13826,
  "валь": 13827,
  "нів,": 13828,
  "▁охоро": 13829,
  "▁теп": 13830,
  "тура": 13831,
  "ту.": 13832,
  "мів": 13833,
  "▁же": 13834,
  "▁креди": 13835,
  "никами": 13836,
  "▁відповідаль": 13837,
  "▁мину": 13838,
  "▁жін": 13839,
  "дяки": 13840,
  "▁o": 13841,
  "чини": 13842,
  "▁Й": 13843,
  ".ua": 13844,
  "▁тим,": 13845,
  "▁станови": 13846,
  "\nПро": 13847,
  "ляється": 13848,
  "дер": 13849,
  "▁Ста": 13850,
  "▁замі": 13851,
  "рун": 13852,
  "стів": 13853,
  "▁жур": 13854,
  "ing": 13855,
  "▁примі": 13856,
  "лля": 13857,
  "▁хвили": 13858,
  "▁студен": 13859,
  "▁би": 13860,
  "▁умова": 13861,
  "▁підприємства": 13862,
  "▁євро": 13863,
  "▁пара": 13864,
  "▁вули": 13865,
  "-рі": 13866,
  "▁зло": 13867,
  "пози": 13868,
  "▁йому": 13869,
  "с-": 13870,
  "▁відповіда": 13871,
  "ував": 13872,
  "зер": 13873,
  "рні": 13874,
  "▁зовніш": 13875,
  "▁розташ": 13876,
  "ent": 13877,
  "▁треба": 13878,
  "▁лікування": 13879,
  "▁хоче": 13880,
  "ch": 13881,
  "▁період": 13882,
  "▁створення": 13883,
  "зумі": 13884,
  "▁Пере": 13885,
  "ристи": 13886,
  "▁той": 13887,
  "▁мов": 13888,
  "▁рекомен": 13889,
  "▁«С": 13890,
  "нет": 13891,
  "ціо": 13892,
  "▁говори": 13893,
  "тня": 13894,
  "▁он": 13895,
  "▁пря": 13896,
  "валі": 13897,
  "▁Хар": 13898,
  "лять": 13899,
  "▁якому": 13900,
  "▁якості": 13901,
  "\nЗа": 13902,
  "кція": 13903,
  "▁росли": 13904,
  "раження": 13905,
  "ською": 13906,
  "дина": 13907,
  "am": 13908,
  "ську": 13909,
  "нії": 13910,
  "▁повідомляє": 13911,
  "▁чис": 13912,
  "▁мас": 13913,
  "чови": 13914,
  "зем": 13915,
  "лити": 13916,
  "▁структу": 13917,
  "вій": 13918,
  "▁професій": 13919,
  "серед": 13920,
  "разу": 13921,
  "мна": 13922,
  "▁почина": 13923,
  ".\nДо": 13924,
  "ність,": 13925,
  "▁застосування": 13926,
  "▁Росії": 13927,
  "▁вда": 13928,
  "▁відбува": 13929,
  "ляга": 13930,
  "ріб": 13931,
  "чч": 13932,
  "▁освіти": 13933,
  "▁досвід": 13934,
  "тою": 13935,
  "▁сторо": 13936,
  "▁відповідно": 13937,
  "▁ща": 13938,
  "пусти": 13939,
  "льним": 13940,
  "ційної": 13941,
  "▁відео": 13942,
  "▁черв": 13943,
  "важ": 13944,
  "сних": 13945,
  "прави": 13946,
  "тури": 13947,
  "▁взя": 13948,
  "▁дере": 13949,
  "▁відомо": 13950,
  "▁понад": 13951,
  "▁розумі": 13952,
  "▁Со": 13953,
  "▁бло": 13954,
  "форму": 13955,
  "ксу": 13956,
  "▁політич": 13957,
  "стер": 13958,
  "▁навчання": 13959,
  ".\nГ": 13960,
  "чі,": 13961,
  "▁суб": 13962,
  "хані": 13963,
  "чив": 13964,
  "тин": 13965,
  "▁університе": 13966,
  "куп": 13967,
  "▁вияви": 13968,
  "▁зберіга": 13969,
  "▁анти": 13970,
  "живання": 13971,
  "ль,": 13972,
  "сур": 13973,
  "шта": 13974,
  "г,": 13975,
  "id": 13976,
  "пти": 13977,
  "▁вив": 13978,
  "вими": 13979,
  "▁показ": 13980,
  "тний": 13981,
  "▁разі": 13982,
  "ційний": 13983,
  "▁досяг": 13984,
  "▁потім": 13985,
  "▁помі": 13986,
  "чених": 13987,
  "хом": 13988,
  "▁верес": 13989,
  ".\nВи": 13990,
  "льному": 13991,
  "бив": 13992,
  "▁повинні": 13993,
  "ції.": 13994,
  "лених": 13995,
  "▁ска": 13996,
  ".\nПри": 13997,
  "док": 13998,
  "нци": 13999,
  "▁Вони": 14000,
  "д,": 14001,
  "▁майже": 14002,
  "ов’я": 14003,
  "▁чого": 14004,
  "▁об’є": 14005,
  "▁використовувати": 14006,
  "вари": 14007,
  "нування": 14008,
  "▁сим": 14009,
  "но.": 14010,
  "тур": 14011,
  "▁норма": 14012,
  "шка": 14013,
  "слав": 14014,
  "▁фон": 14015,
  "▁вияв": 14016,
  "ленні": 14017,
  "німа": 14018,
  "енера": 14019,
  "▁компанії": 14020,
  "us": 14021,
  "ведення": 14022,
  "▁відзна": 14023,
  "▁хар": 14024,
  "сім": 14025,
  "мою": 14026,
  "//": 14027,
  "▁населення": 14028,
  "▁відноси": 14029,
  "▁квар": 14030,
  "▁суду": 14031,
  "▁заги": 14032,
  "▁варіан": 14033,
  "▁\"П": 14034,
  "нувати": 14035,
  "▁Лі": 14036,
  "▁сприя": 14037,
  "▁дів": 14038,
  "▁міль": 14039,
  "му,": 14040,
  "мет": 14041,
  "ги,": 14042,
  "▁голови": 14043,
  "▁s": 14044,
  "▁досить": 14045,
  "▁темпера": 14046,
  "▁спро": 14047,
  "сті,": 14048,
  "рен": 14049,
  "ов'яз": 14050,
  "тайте": 14051,
  "▁доступ": 14052,
  "кува": 14053,
  "▁Україна": 14054,
  "тість": 14055,
  "▁ім": 14056,
  "▁статті": 14057,
  "▁місти": 14058,
  "▁можете": 14059,
  "ціалі": 14060,
  "”,": 14061,
  "▁поряд": 14062,
  "▁там": 14063,
  "рою": 14064,
  "▁філь": 14065,
  "чному": 14066,
  "ляти": 14067,
  "уватися": 14068,
  "ев": 14069,
  "▁інстру": 14070,
  "лює": 14071,
  "▁Також": 14072,
  "рахування": 14073,
  "сю": 14074,
  "▁оку": 14075,
  "▁маши": 14076,
  "▁раніше": 14077,
  "ступа": 14078,
  "▁ху": 14079,
  "\nЗ": 14080,
  "▁твор": 14081,
  "▁намага": 14082,
  "▁іно": 14083,
  "▁зру": 14084,
  "ктора": 14085,
  "▁Львів": 14086,
  "▁Все": 14087,
  "▁групи": 14088,
  "and": 14089,
  "жен": 14090,
  "▁роботу": 14091,
  "чати": 14092,
  "▁дослідження": 14093,
  "ств": 14094,
  "▁засіда": 14095,
  "▁тоді": 14096,
  "кор": 14097,
  "день": 14098,
  "даго": 14099,
  "com": 14100,
  "▁умов": 14101,
  "▁сф": 14102,
  "кона": 14103,
  "▁завдання": 14104,
  "▁звичай": 14105,
  "ч,": 14106,
  "▁запо": 14107,
  "▁дире": 14108,
  "▁закін": 14109,
  "▁джере": 14110,
  "дба": 14111,
  "▁отриму": 14112,
  "ОН": 14113,
  "▁виді": 14114,
  "▁зокре": 14115,
  "РА": 14116,
  "▁відвід": 14117,
  "пис": 14118,
  "станови": 14119,
  "▁O": 14120,
  "лово": 14121,
  "▁дитя": 14122,
  "▁ета": 14123,
  "▁замов": 14124,
  "чер": 14125,
  "ot": 14126,
  "▁.": 14127,
  "▁дис": 14128,
  "ad": 14129,
  "▁схо": 14130,
  "▁Микола": 14131,
  "▁виро": 14132,
  "▁держави": 14133,
  "тего": 14134,
  "▁залиши": 14135,
  "▁захисту": 14136,
  "▁Вели": 14137,
  "▁Лю": 14138,
  "▁Анд": 14139,
  "▁спосо": 14140,
  "ЕН": 14141,
  "жні": 14142,
  "▁водо": 14143,
  "гу,": 14144,
  "ферен": 14145,
  "гато": 14146,
  "ше,": 14147,
  "полі": 14148,
  "▁знаходи": 14149,
  "▁стати": 14150,
  "▁«К": 14151,
  "▁гар": 14152,
  "▁фе": 14153,
  "дити": 14154,
  "лювати": 14155,
  "нди": 14156,
  "▁обра": 14157,
  "жити": 14158,
  "▁Ру": 14159,
  "▁оскільки": 14160,
  "ітря": 14161,
  "▁поки": 14162,
  "▁роби": 14163,
  "▁днів": 14164,
  "лись": 14165,
  "▁виклика": 14166,
  "▁тис.": 14167,
  "▁гривень": 14168,
  "лайн": 14169,
  "тка": 14170,
  "▁нам": 14171,
  "бро": 14172,
  "▁добре": 14173,
  "ьох": 14174,
  "нь,": 14175,
  "tp": 14176,
  "▁людини": 14177,
  "цеп": 14178,
  "▁ал": 14179,
  "▁Націона": 14180,
  "▁кін": 14181,
  "▁чому": 14182,
  "чними": 14183,
  "▁проте": 14184,
  "▁з'я": 14185,
  "лежить": 14186,
  "\nГ": 14187,
  "ter": 14188,
  "крі": 14189,
  "▁розрах": 14190,
  "чува": 14191,
  "iv": 14192,
  "▁природ": 14193,
  "веде": 14194,
  "брати": 14195,
  "сний": 14196,
  "▁Що": 14197,
  "▁порушення": 14198,
  "ційні": 14199,
  "▁краще": 14200,
  "ван": 14201,
  "йшли": 14202,
  "▁склада": 14203,
  "мії": 14204,
  "тій": 14205,
  "йде": 14206,
  "пуляр": 14207,
  "різня": 14208,
  "▁наші": 14209,
  "гти": 14210,
  "рами": 14211,
  "снов": 14212,
  "▁публі": 14213,
  "▁значення": 14214,
  "▁умови": 14215,
  "▁приго": 14216,
  "▁літера": 14217,
  "▁мені": 14218,
  "шень": 14219,
  "чений": 14220,
  "муть": 14221,
  "гла": 14222,
  "тий": 14223,
  "ном,": 14224,
  "▁тисяч": 14225,
  "http": 14226,
  "бор": 14227,
  "ет": 14228,
  "--": 14229,
  "▁+": 14230,
  "▁Пра": 14231,
  "▁мати": 14232,
  "▁підтвер": 14233,
  "▁якої": 14234,
  "нем": 14235,
  "дно": 14236,
  "||": 14237,
  "▁Пер": 14238,
  "://": 14239,
  "▁прива": 14240,
  "▁НА": 14241,
  "▁жі": 14242,
  "рон": 14243,
  "▁листопада": 14244,
  "лег": 14245,
  "форм": 14246,
  "▁«В": 14247,
  "▁очі": 14248,
  "▁територі": 14249,
  "чено": 14250,
  ".\nЦ": 14251,
  "ag": 14252,
  "▁пояс": 14253,
  "пуска": 14254,
  "▁d": 14255,
  "гані": 14256,
  "▁речови": 14257,
  "▁лютого": 14258,
  "▁Одна": 14259,
  "▁М.": 14260,
  "▁хі": 14261,
  "▁роки": 14262,
  "▁мініст": 14263,
  "ві,": 14264,
  "▁психо": 14265,
  "риди": 14266,
  "▁тебе": 14267,
  "▁музи": 14268,
  "ерк": 14269,
  "▁уч": 14270,
  "▁автомобі": 14271,
  "бер": 14272,
  "ців,": 14273,
  "шки": 14274,
  "▁їм": 14275,
  "вадження": 14276,
  "▁Після": 14277,
  "▁спа": 14278,
  "▁зроста": 14279,
  "воре": 14280,
  "▁дії": 14281,
  "шо": 14282,
  "лів,": 14283,
  "▁препара": 14284,
  "▁«М": 14285,
  "жива": 14286,
  "▁березня": 14287,
  "▁метою": 14288,
  "стат": 14289,
  "повіда": 14290,
  "казу": 14291,
  "йшов": 14292,
  "зація": 14293,
  "▁вигляді": 14294,
  "▁характери": 14295,
  "ське": 14296,
  "\nБ": 14297,
  "▁цю": 14298,
  "да,": 14299,
  "▁форма": 14300,
  "▁користува": 14301,
  "тів.": 14302,
  "'ю": 14303,
  "▁Ли": 14304,
  "▁жовтня": 14305,
  "новлення": 14306,
  "лась": 14307,
  "▁тради": 14308,
  "ука": 14309,
  "нува": 14310,
  "▁нових": 14311,
  "▁повітря": 14312,
  "люва": 14313,
  "▁ринку": 14314,
  "▁X": 14315,
  "▁i": 14316,
  "▁рівня": 14317,
  "▁сте": 14318,
  "▁механі": 14319,
  "▁надання": 14320,
  "▁облі": 14321,
  "▁ут": 14322,
  "гадаємо,": 14323,
  "у,": 14324,
  "же,": 14325,
  "чається": 14326,
  "ченко": 14327,
  "▁адже": 14328,
  "▁сім": 14329,
  "▁травня": 14330,
  "▁уро": 14331,
  "▁хло": 14332,
  "▁липня": 14333,
  "▁прийня": 14334,
  "гії": 14335,
  "▁характер": 14336,
  "РО": 14337,
  "▁нази": 14338,
  "▁січня": 14339,
  "▁голова": 14340,
  "▁кер": 14341,
  "▁поши": 14342,
  "▁робіт": 14343,
  "▁найкра": 14344,
  "▁Верхов": 14345,
  "▁реєстра": 14346,
  "нал": 14347,
  "▁отримати": 14348,
  "▁міської": 14349,
  ".com": 14350,
  "▁грн.": 14351,
  "▁експер": 14352,
  "▁тек": 14353,
  "▁майбут": 14354,
  "▁України.": 14355,
  "▁перебува": 14356,
  "▁виробництва": 14357,
  "▁процесу": 14358,
  "▁здат": 14359,
  "ду.": 14360,
  "▁написа": 14361,
  "бто": 14362,
  "чання": 14363,
  "ючись": 14364,
  "тю": 14365,
  "▁галу": 14366,
  "ським": 14367,
  "▁f": 14368,
  "дови": 14369,
  "▁дозволяє": 14370,
  "▁безпеки": 14371,
  "силь": 14372,
  "________": 14373,
  "II": 14374,
  "▁посила": 14375,
  "хе": 14376,
  "ування,": 14377,
  "хова": 14378,
  "дини": 14379,
  "▁вересня": 14380,
  "ників,": 14381,
  "▁народження": 14382,
  "▁установ": 14383,
  "втор": 14384,
  "▁догово": 14385,
  "▁м'я": 14386,
  "▁of": 14387,
  "▁проекту": 14388,
  "▁заступ": 14389,
  "▁даних": 14390,
  "▁останні": 14391,
  "вець": 14392,
  "▁розді": 14393,
  "ною,": 14394,
  "лі.": 14395,
  "▁змен": 14396,
  "▁дав": 14397,
  "тної": 14398,
  "▁затвер": 14399,
  "▁надій": 14400,
  "дан": 14401,
  "▁поро": 14402,
  "▁ресур": 14403,
  "ці.": 14404,
  "▁показа": 14405,
  "▁благо": 14406,
  "дів,": 14407,
  "кологі": 14408,
  "▁води": 14409,
  "ерж": 14410,
  "▁найбільш": 14411,
  "▁організ": 14412,
  "▁державної": 14413,
  ".\nЩ": 14414,
  "▁грудня": 14415,
  "ходження": 14416,
  "чому": 14417,
  "▁m": 14418,
  "реш": 14419,
  "▁дві": 14420,
  "▁\n\n": 14421,
  "▁оборо": 14422,
  "▁займа": 14423,
  "▁Ду": 14424,
  "▁задово": 14425,
  "▁обов'яз": 14426,
  "▁важли": 14427,
  "▁напрям": 14428,
  "нного": 14429,
  "▁гли": 14430,
  "▁Ле": 14431,
  "▁K": 14432,
  "▁виготов": 14433,
  "▁тощо": 14434,
  "чили": 14435,
  "▁реаль": 14436,
  "▁незалеж": 14437,
  "ради": 14438,
  "▁принци": 14439,
  "НІ": 14440,
  "▁нер": 14441,
  "▁іме": 14442,
  ".\nВід": 14443,
  "▁ризи": 14444,
  "їха": 14445,
  "▁завер": 14446,
  "чить": 14447,
  "▁Держав": 14448,
  "кувати": 14449,
  "▁стосу": 14450,
  "▁дове": 14451,
  "мих": 14452,
  "бри": 14453,
  "▁земе": 14454,
  "▁кордо": 14455,
  "ерт": 14456,
  "цій,": 14457,
  "ЕР": 14458,
  "▁пропози": 14459,
  "▁допомага": 14460,
  "▁вмі": 14461,
  "▁влади": 14462,
  "оте": 14463,
  "▁експ": 14464,
  "ксима": 14465,
  "▁відно": 14466,
  "▁«Д": 14467,
  "▁нез": 14468,
  "оро": 14469,
  "не,": 14470,
  "▁Дні": 14471,
  "▁Мар": 14472,
  "▁ря": 14473,
  "▁поми": 14474,
  "най": 14475,
  "▁такий": 14476,
  "▁пам'я": 14477,
  "▁рам": 14478,
  "▁Ла": 14479,
  "▁біля": 14480,
  "\nІ": 14481,
  "ччя": 14482,
  "▁Се": 14483,
  "'яза": 14484,
  "\nВи": 14485,
  "▁ремон": 14486,
  "ДА": 14487,
  "▁харч": 14488,
  "▁Оде": 14489,
  "ерно": 14490,
  "▁плат": 14491,
  "▁журналі": 14492,
  "тові": 14493,
  "ті.": 14494,
  "▁інт": 14495,
[...]
